<pad>	0
<unk>	0
<s>	0
</s>	0
▁t	-0
▁a	-1
he	-2
in	-3
re	-4
▁the	-5
on	-6
er	-7
▁o	-8
at	-9
▁s	-10
en	-11
▁c	-12
es	-13
▁w	-14
is	-15
nd	-16
it	-17
or	-18
▁of	-19
▁p	-20
al	-21
ed	-22
▁b	-23
an	-24
▁f	-25
▁in	-26
ar	-27
ing	-28
ic	-29
▁and	-30
▁m	-31
ion	-32
ou	-33
▁to	-34
▁d	-35
ro	-36
le	-37
as	-38
ent	-39
▁h	-40
▁th	-41
ct	-42
▁e	-43
▁re	-44
il	-45
▁T	-46
st	-47
om	-48
▁n	-49
ve	-50
▁l	-51
ly	-52
▁be	-53
▁A	-54
ol	-55
ation	-56
▁is	-57
se	-58
▁S	-59
im	-60
▁g	-61
ce	-62
id	-63
ut	-64
ra	-65
ch	-66
ot	-67
et	-68
▁C	-69
ur	-70
▁I	-71
▁for	-72
ig	-73
ow	-74
▁on	-75
▁that	-76
▁u	-77
ver	-78
▁The	-79
▁st	-80
ir	-81
ul	-82
am	-83
ad	-84
el	-85
▁1	-86
▁as	-87
▁M	-88
▁(	-89
ith	-90
her	-91
▁con	-92
▁pro	-93
ay	-94
▁P	-95
▁an	-96
▁wh	-97
▁with	-98
ter	-99
if	-100
▁are	-101
▁B	-102
▁or	-103
▁it	-104
ment	-105
ist	-106
▁al	-107
od	-108
ge	-109
▁y	-110
ate	-111
▁de	-112
th	-113
▁H	-114
op	-115
ies	-116
ers	-117
▁W	-118
ere	-119
▁ex	-120
ab	-121
▁su	-122
▁by	-123
res	-124
ect	-125
ill	-126
ity	-127
us	-128
ess	-129
▁R	-130
▁com	-131
▁D	-132
▁E	-133
um	-134
▁F	-135
▁was	-136
os	-137
rom	-138
ld	-139
est	-140
em	-141
▁he	-142
and	-143
ac	-144
ri	-145
ore	-146
▁at	-147
▁v	-148
qu	-149
ive	-150
▁N	-151
ain	-152
pp	-153
nt	-154
▁2	-155
▁from	-156
ant	-157
ci	-158
▁G	-159
ud	-160
▁-	-161
igh	-162
our	-163
▁L	-164
iv	-165
ort	-166
▁ha	-167
▁se	-168
ke	-169
▁ne	-170
00	-171
ical	-172
▁ch	-173
▁r	-174
ure	-175
▁not	-176
un	-177
art	-178
og	-179
▁O	-180
ich	-181
▁sh	-182
▁have	-183
▁In	-184
▁le	-185
▁sp	-186
ap	-187
▁en	-188
▁J	-189
▁this	-190
all	-191
▁can	-192
ould	-193
ight	-194
ated	-195
rou	-196
ther	-197
gh	-198
ions	-199
▁"	-200
ost	-201
▁ab	-202
▁U	-203
du	-204
oc	-205
▁wor	-206
ard	-207
ine	-208
ag	-209
▁19	-210
▁which	-211
ear	-212
▁im	-213
ome	-214
▁int	-215
pt	-216
ans	-217
ff	-218
ast	-219
ell	-220
pl	-221
▁pl	-222
▁we	-223
out	-224
ous	-225
ew	-226
▁their	-227
▁us	-228
ust	-229
act	-230
iz	-231
age	-232
per	-233
▁you	-234
ally	-235
▁Th	-236
▁cont	-237
ib	-238
ide	-239
ary	-240
ations	-241
ak	-242
so	-243
ult	-244
red	-245
cc	-246
ru	-247
▁were	-248
end	-249
▁whe	-250
ong	-251
▁all	-252
▁ad	-253
▁k	-254
▁so	-255
▁comp	-256
▁res	-257
▁inc	-258
▁they	-259
vel	-260
ia	-261
▁dis	-262
▁has	-263
ence	-264
ater	-265
orm	-266
▁more	-267
▁cl	-268
▁will	-269
▁but	-270
able	-271
ial	-272
▁other	-273
▁man	-274
▁per	-275
▁St	-276
ec	-277
ood	-278
▁his	-279
ip	-280
ry	-281
▁one	-282
ks	-283
ance	-284
).	-285
ass	-286
ign	-287
▁ar	-288
ose	-289
ction	-290
▁un	-291
ber	-292
ach	-293
▁me	-294
▁do	-295
are	-296
ind	-297
ents	-298
av	-299
ild	-300
▁K	-301
▁te	-302
▁app	-303
ress	-304
ish	-305
▁part	-306
ub	-307
ition	-308
ace	-309
ory	-310
ep	-311
▁imp	-312
ice	-313
au	-314
ire	-315
ame	-316
▁ev	-317
ens	-318
olog	-319
ount	-320
ord	-321
▁Ch	-322
▁also	-323
▁“	-324
▁j	-325
mer	-326
▁who	-327
ase	-328
▁out	-329
reat	-330
ces	-331
▁stud	-332
ime	-333
ian	-334
ang	-335
very	-336
ree	-337
ound	-338
ite	-339
ors	-340
ok	-341
▁V	-342
▁It	-343
ric	-344
one	-345
▁been	-346
▁had	-347
ack	-348
ie	-349
▁about	-350
▁inf	-351
▁its	-352
ates	-353
ake	-354
▁than	-355
ue	-356
▁3	-357
▁sy	-358
▁This	-359
▁year	-360
▁comm	-361
▁bec	-362
ject	-363
▁ag	-364
vers	-365
low	-366
▁up	-367
ph	-368
▁pre	-369
erv	-370
▁qu	-371
▁them	-372
nder	-373
now	-374
ail	-375
ough	-376
▁may	-377
▁rec	-378
ons	-379
▁there	-380
▁into	-381
▁some	-382
ile	-383
tern	-384
ual	-385
ings	-386
▁pe	-387
▁200	-388
ond	-389
▁ra	-390
rit	-391
▁would	-392
fere	-393
ike	-394
pe	-395
lic	-396
▁des	-397
ational	-398
▁tra	-399
▁go	-400
ays	-401
int	-402
▁tw	-403
▁these	-404
ms	-405
▁over	-406
ific	-407
lect	-408
▁cons	-409
irst	-410
▁Un	-411
rough	-412
▁ro	-413
▁col	-414
ove	-415
te	-416
▁work	-417
▁when	-418
ments	-419
ll	-420
),	-421
lud	-422
▁time	-423
hed	-424
ren	-425
▁your	-426
▁rel	-427
..	-428
▁under	-429
ities	-430
▁new	-431
▁ob	-432
ys	-433
velop	-434
stem	-435
▁bet	-436
▁Y	-437
we	-438
▁gen	-439
les	-440
▁most	-441
▁dif	-442
▁acc	-443
▁such	-444
▁no	-445
▁act	-446
▁use	-447
▁rep	-448
▁tr	-449
wn	-450
ople	-451
ause	-452
ced	-453
▁how	-454
ple	-455
ative	-456
▁only	-457
▁sa	-458
▁co	-459
▁eff	-460
ious	-461
cial	-462
▁first	-463
▁know	-464
▁ind	-465
▁po	-466
rib	-467
▁two	-468
ics	-469
iss	-470
▁ph	-471
ied	-472
ning	-473
ular	-474
▁prov	-475
▁any	-476
erm	-477
▁develop	-478
ob	-479
cess	-480
ov	-481
▁includ	-482
▁am	-483
▁He	-484
▁exp	-485
▁produ	-486
▁people	-487
ark	-488
▁4	-489
▁As	-490
▁reg	-491
▁used	-492
▁bl	-493
ook	-494
▁20	-495
▁dec	-496
▁like	-497
▁sc	-498
fter	-499
ts	-500
ating	-501
▁system	-502
uc	-503
ath	-504
▁pr	-505
▁off	-506
▁through	-507
▁our	-508
▁ac	-509
▁many	-510
▁sub	-511
oss	-512
▁if	-513
ution	-514
▁att	-515
arch	-516
old	-517
▁what	-518
ram	-519
ade	-520
als	-521
uring	-522
▁em	-523
round	-524
ise	-525
▁mod	-526
▁5	-527
▁18	-528
▁sur	-529
ool	-530
oth	-531
ne	-532
ures	-533
▁years	-534
ility	-535
ween	-536
ange	-537
ible	-538
ble	-539
ited	-540
ased	-541
▁need	-542
ert	-543
meric	-544
hen	-545
▁child	-546
aw	-547
gan	-548
ower	-549
ng	-550
▁pres	-551
▁fe	-552
▁inv	-553
ful	-554
▁pol	-555
cy	-556
▁Wh	-557
sel	-558
▁between	-559
ology	-560
eth	-561
ists	-562
ten	-563
▁rem	-564
alth	-565
▁differe	-566
▁supp	-567
row	-568
▁fl	-569
▁could	-570
▁inter	-571
land	-572
▁form	-573
fore	-574
ivers	-575
ink	-576
▁add	-577
▁Americ	-578
ract	-579
ife	-580
▁ear	-581
ural	-582
ism	-583
hes	-584
ident	-585
uch	-586
▁cent	-587
own	-588
▁trans	-589
▁well	-590
▁inst	-591
xt	-592
chool	-593
▁should	-594
▁where	-595
▁rese	-596
▁lar	-597
▁water	-598
chn	-599
ever	-600
ont	-601
cept	-602
form	-603
ict	-604
▁|	-605
ered	-606
▁Al	-607
▁Pro	-608
▁num	-609
▁Re	-610
▁ed	-611
ft	-612
▁high	-613
▁spec	-614
▁sm	-615
▁(1	-616
ines	-617
its	-618
▁pub	-619
▁bu	-620
ps	-621
ily	-622
▁Com	-623
▁An	-624
▁gener	-625
ature	-626
ved	-627
iew	-628
▁found	-629
vern	-630
▁sim	-631
▁For	-632
▁prog	-633
.,	-634
urn	-635
▁exam	-636
ants	-637
▁her	-638
."	-639
▁199	-640
▁count	-641
ick	-642
▁det	-643
gy	-644
▁disc	-645
▁after	-646
▁pers	-647
▁dist	-648
▁We	-649
▁then	-650
▁inform	-651
▁ext	-652
itt	-653
▁hum	-654
ins	-655
▁hel	-656
oy	-657
▁long	-658
▁world	-659
led	-660
▁Ar	-661
▁ass	-662
▁those	-663
▁very	-664
ually	-665
▁6	-666
▁because	-667
ically	-668
other	-669
▁effect	-670
▁sci	-671
▁car	-672
▁New	-673
cent	-674
ata	-675
▁resp	-676
▁incre	-677
▁partic	-678
ruct	-679
▁call	-680
▁var	-681
▁gra	-682
▁sec	-683
ork	-684
▁even	-685
▁import	-686
▁said	-687
onom	-688
▁fol	-689
ized	-690
▁ent	-691
▁loc	-692
ather	-693
▁each	-694
ward	-695
▁def	-696
ues	-697
ness	-698
▁set	-699
▁sign	-700
ds	-701
ives	-702
▁made	-703
▁result	-704
▁make	-705
▁just	-706
▁see	-707
vent	-708
▁exper	-709
▁spe	-710
▁different	-711
iversity	-712
iel	-713
ages	-714
ros	-715
▁being	-716
get	-717
▁art	-718
iron	-719
▁same	-720
und	-721
▁fact	-722
▁requ	-723
ety	-724
▁techn	-725
▁process	-726
▁di	-727
▁information	-728
▁way	-729
▁ty	-730
▁much	-731
▁aut	-732
▁201	-733
▁If	-734
▁commun	-735
▁dep	-736
ished	-737
0.	-738
arm	-739
▁him	-740
ale	-741
ern	-742
▁hist	-743
▁pat	-744
▁follow	-745
ars	-746
ined	-747
ck	-748
||	-749
▁own	-750
▁right	-751
▁But	-752
hip	-753
ince	-754
▁mon	-755
▁during	-756
imes	-757
aking	-758
▁she	-759
▁help	-760
ases	-761
hem	-762
▁How	-763
orn	-764
▁grou	-765
▁cur	-766
▁school	-767
▁both	-768
▁cre	-769
▁end	-770
any	-771
▁ref	-772
-1	-773
▁appro	-774
▁state	-775
ty	-776
▁again	-777
gg	-778
▁students	-779
000	-780
▁Se	-781
▁ec	-782
▁There	-783
ef	-784
▁Ind	-785
ize	-786
▁fam	-787
▁my	-788
io	-789
▁life	-790
▁They	-791
▁pop	-792
▁small	-793
▁cap	-794
▁med	-795
ran	-796
▁7	-797
▁every	-798
▁expl	-799
ury	-800
ix	-801
ection	-802
▁str	-803
imate	-804
ices	-805
▁est	-806
▁govern	-807
▁ke	-808
▁children	-809
▁lead	-810
▁study	-811
▁read	-812
▁get	-813
ex	-814
▁comple	-815
viron	-816
▁now	-817
ute	-818
ven	-819
▁ma	-820
irect	-821
▁level	-822
ral	-823
nce	-824
▁mem	-825
▁lear	-826
▁show	-827
▁val	-828
oh	-829
▁gl	-830
▁min	-831
▁poss	-832
▁proble	-833
ting	-834
inal	-835
▁av	-836
▁occ	-837
▁health	-838
▁data	-839
▁8	-840
▁–	-841
ah	-842
ient	-843
▁design	-844
▁three	-845
▁char	-846
▁does	-847
▁power	-848
rol	-849
▁number	-850
▁human	-851
▁back	-852
ock	-853
ier	-854
▁large	-855
▁bo	-856
ulation	-857
▁research	-858
ivid	-859
▁Sp	-860
▁before	-861
▁ins	-862
der	-863
ters	-864
▁sol	-865
,"	-866
▁must	-867
▁serv	-868
▁point	-869
▁important	-870
the	-871
read	-872
▁class	-873
ergy	-874
ands	-875
▁organ	-876
ves	-877
omen	-878
▁Is	-879
air	-880
uss	-881
▁So	-882
▁const	-883
ving	-884
ality	-885
▁bel	-886
▁report	-887
▁10	-888
▁find	-889
▁And	-890
▁public	-891
vironment	-892
▁main	-893
ides	-894
▁did	-895
▁9	-896
cl	-897
ted	-898
rent	-899
▁less	-900
▁plan	-901
▁De	-902
ave	-903
iqu	-904
hers	-905
ton	-906
.”	-907
▁contin	-908
ody	-909
▁elect	-910
▁great	-911
▁good	-912
up	-913
▁University	-914
ision	-915
eral	-916
The	-917
▁test	-918
man	-919
▁person	-920
▁American	-921
▁ret	-922
ron	-923
outh	-924
▁often	-925
com	-926
▁while	-927
aterial	-928
▁At	-929
▁cor	-930
ected	-931
ains	-932
self	-933
ouse	-934
▁consid	-935
▁sk	-936
▁support	-937
▁object	-938
els	-939
▁Con	-940
ency	-941
ull	-942
ared	-943
▁cour	-944
▁equ	-945
raph	-946
▁using	-947
▁prot	-948
▁ser	-949
stand	-950
▁op	-951
osed	-952
▁[	-953
ash	-954
▁Res	-955
▁mat	-956
ional	-957
▁met	-958
orth	-959
itions	-960
▁example	-961
▁cell	-962
▁Ph	-963
eg	-964
▁though	-965
▁down	-966
bers	-967
▁called	-968
▁grow	-969
,000	-970
dition	-971
▁educ	-972
ax	-973
lear	-974
▁These	-975
akes	-976
▁conf	-977
▁present	-978
▁activ	-979
ians	-980
ross	-981
▁dem	-982
ital	-983
oun	-984
ield	-985
iod	-986
ired	-987
ained	-988
ization	-989
ring	-990
▁writ	-991
...	-992
day	-993
ological	-994
ger	-995
lish	-996
way	-997
▁Eng	-998
▁build	-999
▁material	-1000
soci	-1001
▁desc	-1002
▁adv	-1003
erest	-1004
ration	-1005
▁development	-1006
ense	-1007
▁government	-1008
acter	-1009
▁fun	-1010
ug	-1011
ium	-1012
▁known	-1013
▁including	-1014
ior	-1015
ources	-1016
▁day	-1017
▁direct	-1018
de	-1019
▁around	-1020
▁sl	-1021
uro	-1022
▁still	-1023
iven	-1024
▁'	-1025
▁allow	-1026
▁Ad	-1027
aus	-1028
▁To	-1029
▁take	-1030
▁gre	-1031
ission	-1032
irc	-1033
▁within	-1034
▁food	-1035
▁common	-1036
jor	-1037
illion	-1038
▁place	-1039
▁pur	-1040
▁conc	-1041
ries	-1042
▁ide	-1043
▁redu	-1044
▁Col	-1045
▁United	-1046
▁(2	-1047
▁econom	-1048
▁light	-1049
▁project	-1050
▁Sh	-1051
▁.	-1052
lished	-1053
▁On	-1054
▁law	-1055
▁When	-1056
ination	-1057
▁quest	-1058
ified	-1059
▁few	-1060
ividual	-1061
▁stand	-1062
▁aff	-1063
▁mil	-1064
▁meas	-1065
hor	-1066
▁chang	-1067
ris	-1068
▁tem	-1069
▁beh	-1070
ner	-1071
▁treat	-1072
▁program	-1073
▁look	-1074
▁war	-1075
▁pract	-1076
▁vis	-1077
▁Cl	-1078
ering	-1079
ertain	-1080
rist	-1081
▁without	-1082
▁another	-1083
ason	-1084
▁oper	-1085
▁area	-1086
angu	-1087
ets	-1088
rop	-1089
eng	-1090
▁gu	-1091
▁land	-1092
▁bas	-1093
att	-1094
▁scient	-1095
▁Comm	-1096
atic	-1097
▁might	-1098
▁198	-1099
az	-1100
▁&	-1101
▁iss	-1102
▁belie	-1103
▁fore	-1104
▁energy	-1105
ograph	-1106
▁som	-1107
▁interest	-1108
less	-1109
▁States	-1110
▁eng	-1111
▁environment	-1112
▁15	-1113
ethod	-1114
▁prop	-1115
▁ter	-1116
▁second	-1117
rain	-1118
▁change	-1119
▁(19	-1120
▁early	-1121
here	-1122
ording	-1123
▁against	-1124
▁Ex	-1125
ived	-1126
▁pos	-1127
rodu	-1128
▁pass	-1129
▁cult	-1130
iving	-1131
▁et	-1132
▁ris	-1133
▁individual	-1134
▁sever	-1135
▁near	-1136
ret	-1137
2.	-1138
▁ident	-1139
atural	-1140
▁17	-1141
ccess	-1142
ently	-1143
▁care	-1144
▁opp	-1145
lement	-1146
▁phys	-1147
▁prof	-1148
olution	-1149
sp	-1150
▁dise	-1151
iver	-1152
amp	-1153
1.	-1154
▁major	-1155
▁Q	-1156
▁par	-1157
▁vari	-1158
▁percent	-1159
▁think	-1160
arent	-1161
ption	-1162
ential	-1163
▁leg	-1164
itive	-1165
▁social	-1166
▁last	-1167
▁understand	-1168
▁National	-1169
gin	-1170
▁particular	-1171
ource	-1172
line	-1173
agn	-1174
▁orig	-1175
ability	-1176
▁rest	-1177
me	-1178
par	-1179
▁What	-1180
▁hand	-1181
▁history	-1182
▁anal	-1183
▁start	-1184
lu	-1185
▁avail	-1186
▁mark	-1187
▁body	-1188
▁control	-1189
▁En	-1190
▁several	-1191
use	-1192
▁Pl	-1193
view	-1194
▁bro	-1195
ards	-1196
though	-1197
▁old	-1198
▁Le	-1199
ik	-1200
,”	-1201
ator	-1202
▁group	-1203
ences	-1204
abor	-1205
▁view	-1206
▁vol	-1207
▁typ	-1208
cer	-1209
min	-1210
▁move	-1211
▁However	-1212
▁You	-1213
▁period	-1214
▁species	-1215
mb	-1216
idence	-1217
▁real	-1218
osp	-1219
ided	-1220
▁God	-1221
▁among	-1222
▁current	-1223
▁men	-1224
▁unt	-1225
▁hy	-1226
ably	-1227
▁experi	-1228
▁since	-1229
▁eas	-1230
▁imm	-1231
ote	-1232
arc	-1233
ank	-1234
▁polit	-1235
ention	-1236
▁product	-1237
cing	-1238
▁four	-1239
▁obs	-1240
▁Sci	-1241
ify	-1242
▁play	-1243
ina	-1244
ining	-1245
▁women	-1246
▁Z	-1247
▁pri	-1248
▁order	-1249
▁method	-1250
▁Cent	-1251
▁anim	-1252
▁lim	-1253
▁sit	-1254
ole	-1255
▁12	-1256
▁ve	-1257
ids	-1258
▁Can	-1259
ended	-1260
▁indu	-1261
▁air	-1262
▁says	-1263
resent	-1264
▁pot	-1265
▁occur	-1266
▁low	-1267
sy	-1268
ww	-1269
▁become	-1270
bs	-1271
ittle	-1272
▁mar	-1273
▁proper	-1274
▁non	-1275
▁es	-1276
▁Te	-1277
▁areas	-1278
▁All	-1279
urope	-1280
▁el	-1281
▁say	-1282
ames	-1283
▁tre	-1284
iter	-1285
▁impro	-1286
ohn	-1287
stit	-1288
ilar	-1289
▁caus	-1290
▁invol	-1291
▁Christ	-1292
▁open	-1293
▁Or	-1294
▁langu	-1295
▁include	-1296
▁16	-1297
ats	-1298
▁here	-1299
▁later	-1300
▁bi	-1301
▁bre	-1302
▁available	-1303
face	-1304
▁rad	-1305
▁struct	-1306
ples	-1307
icle	-1308
▁dev	-1309
▁possible	-1310
▁addition	-1311
▁ant	-1312
▁fre	-1313
▁provide	-1314
▁diff	-1315
1,	-1316
ged	-1317
rid	-1318
ental	-1319
tt	-1320
▁Be	-1321
▁country	-1322
▁perform	-1323
▁Europe	-1324
▁fac	-1325
ogn	-1326
alk	-1327
ither	-1328
▁fin	-1329
ories	-1330
3.	-1331
oph	-1332
▁—	-1333
▁Af	-1334
▁cost	-1335
▁hig	-1336
ope	-1337
▁want	-1338
iness	-1339
▁means	-1340
▁One	-1341
▁given	-1342
▁signific	-1343
urther	-1344
▁exist	-1345
▁far	-1346
▁Ear	-1347
▁based	-1348
▁case	-1349
▁ben	-1350
▁century	-1351
▁rece	-1352
gen	-1353
▁John	-1354
por	-1355
ggest	-1356
▁success	-1357
▁author	-1358
aps	-1359
ape	-1360
ternational	-1361
▁top	-1362
▁name	-1363
▁local	-1364
▁model	-1365
▁head	-1366
oms	-1367
▁too	-1368
ways	-1369
▁seem	-1370
▁following	-1371
ox	-1372
ling	-1373
-2	-1374
ised	-1375
oint	-1376
▁mus	-1377
▁appear	-1378
not	-1379
▁mean	-1380
▁tri	-1381
▁however	-1382
▁estab	-1383
▁del	-1384
▁comput	-1385
▁certain	-1386
▁family	-1387
▁until	-1388
▁book	-1389
▁suggest	-1390
▁best	-1391
4.	-1392
une	-1393
▁others	-1394
pr	-1395
▁197	-1396
▁natural	-1397
▁Wor	-1398
▁By	-1399
aken	-1400
▁lo	-1401
10	-1402
cially	-1403
aper	-1404
lection	-1405
elf	-1406
▁learn	-1407
▁space	-1408
▁better	-1409
▁times	-1410
▁home	-1411
▁describ	-1412
ured	-1413
▁little	-1414
ploy	-1415
▁$	-1416
ills	-1417
▁don	-1418
▁dra	-1419
ruction	-1420
oks	-1421
▁determ	-1422
ledge	-1423
▁Gen	-1424
▁circ	-1425
to	-1426
ances	-1427
ware	-1428
▁character	-1429
▁indust	-1430
▁cond	-1431
▁associ	-1432
▁systems	-1433
atory	-1434
ends	-1435
ciety	-1436
5.	-1437
▁‘	-1438
▁Sc	-1439
str	-1440
▁Brit	-1441
orts	-1442
▁education	-1443
ird	-1444
▁Some	-1445
▁US	-1446
▁cal	-1447
▁disease	-1448
▁run	-1449
▁post	-1450
▁problem	-1451
".	-1452
▁War	-1453
ley	-1454
ann	-1455
▁sing	-1456
▁past	-1457
ued	-1458
ately	-1459
▁come	-1460
▁free	-1461
▁press	-1462
▁turn	-1463
▁million	-1464
▁Ge	-1465
ane	-1466
▁line	-1467
▁population	-1468
▁along	-1469
▁general	-1470
▁crit	-1471
▁record	-1472
▁Germ	-1473
ler	-1474
enn	-1475
▁able	-1476
▁put	-1477
▁subject	-1478
vious	-1479
▁comb	-1480
8.	-1481
▁similar	-1482
▁clear	-1483
▁community	-1484
ths	-1485
ume	-1486
▁list	-1487
▁things	-1488
▁flow	-1489
▁course	-1490
▁prom	-1491
▁became	-1492
▁above	-1493
▁--	-1494
▁mult	-1495
ators	-1496
▁fil	-1497
be	-1498
ribut	-1499
▁Afric	-1500
▁pain	-1501
aim	-1502
0,	-1503
▁discuss	-1504
pect	-1505
▁Med	-1506
▁significant	-1507
▁represent	-1508
ients	-1509
▁bus	-1510
▁er	-1511
▁short	-1512
6.	-1513
etic	-1514
ots	-1515
▁access	-1516
ored	-1517
urch	-1518
2,	-1519
icult	-1520
uture	-1521
▁invest	-1522
isc	-1523
ocus	-1524
▁science	-1525
▁With	-1526
▁upon	-1527
istic	-1528
idd	-1529
nal	-1530
▁Mar	-1531
9.	-1532
ray	-1533
▁problems	-1534
ead	-1535
▁age	-1536
▁mov	-1537
3,	-1538
put	-1539
over	-1540
mber	-1541
val	-1542
▁Sy	-1543
7.	-1544
▁hard	-1545
▁necess	-1546
ges	-1547
most	-1548
of	-1549
aster	-1550
▁teac	-1551
▁Ab	-1552
ones	-1553
▁language	-1554
ument	-1555
▁left	-1556
▁polic	-1557
ek	-1558
inci	-1559
--	-1560
▁death	-1561
▁never	-1562
▁offic	-1563
ively	-1564
▁let	-1565
▁prim	-1566
▁York	-1567
obal	-1568
ott	-1569
▁Car	-1570
▁risk	-1571
▁least	-1572
ression	-1573
▁influ	-1574
▁happ	-1575
agement	-1576
▁May	-1577
▁young	-1578
▁che	-1579
ference	-1580
▁ill	-1581
▁cause	-1582
▁cells	-1583
▁Bl	-1584
▁temper	-1585
ffic	-1586
4,	-1587
asing	-1588
▁amount	-1589
▁special	-1590
ae	-1591
ortun	-1592
▁rele	-1593
▁World	-1594
▁applic	-1595
iam	-1596
ember	-1597
▁plant	-1598
alf	-1599
▁national	-1600
▁results	-1601
ilities	-1602
ilt	-1603
▁countries	-1604
aining	-1605
▁fund	-1606
▁relig	-1607
duct	-1608
▁tru	-1609
▁observ	-1610
▁indic	-1611
work	-1612
▁political	-1613
reen	-1614
ending	-1615
▁behav	-1616
af	-1617
ially	-1618
50	-1619
▁Cal	-1620
▁Rep	-1621
oman	-1622
eter	-1623
ification	-1624
▁conn	-1625
▁term	-1626
ober	-1627
▁blood	-1628
rap	-1629
▁field	-1630
▁keep	-1631
▁North	-1632
selves	-1633
▁196	-1634
▁next	-1635
▁function	-1636
▁begin	-1637
▁sw	-1638
▁days	-1639
▁Go	-1640
▁plac	-1641
mp	-1642
▁various	-1643
▁creat	-1644
ode	-1645
▁surface	-1646
▁ground	-1647
▁usually	-1648
ales	-1649
▁That	-1650
▁strong	-1651
ublic	-1652
▁Ne	-1653
▁benef	-1654
▁vir	-1655
▁saf	-1656
oid	-1657
▁pred	-1658
▁Resear	-1659
omm	-1660
▁changes	-1661
▁technology	-1662
▁focus	-1663
pecially	-1664
▁mot	-1665
▁type	-1666
▁levels	-1667
▁difficult	-1668
5,	-1669
▁learning	-1670
ateg	-1671
▁likely	-1672
▁enc	-1673
edi	-1674
▁future	-1675
▁consider	-1676
let	-1677
rams	-1678
▁kind	-1679
▁studies	-1680
▁cr	-1681
▁dri	-1682
ivil	-1683
ique	-1684
▁increase	-1685
▁site	-1686
▁developed	-1687
▁city	-1688
▁rather	-1689
▁Stud	-1690
▁1.	-1691
▁gr	-1692
▁mass	-1693
▁groups	-1694
▁respons	-1695
▁America	-1696
AS	-1697
app	-1698
▁due	-1699
▁side	-1700
▁making	-1701
▁words	-1702
▁higher	-1703
▁State	-1704
▁members	-1705
▁toget	-1706
ours	-1707
▁today	-1708
▁together	-1709
▁Jew	-1710
▁relations	-1711
▁text	-1712
▁knowledge	-1713
wh	-1714
mm	-1715
ysis	-1716
aching	-1717
▁profess	-1718
▁prevent	-1719
ibr	-1720
ething	-1721
▁specific	-1722
ipp	-1723
adem	-1724
by	-1725
▁impact	-1726
▁researc	-1727
▁works	-1728
▁Hist	-1729
▁full	-1730
▁ele	-1731
▁further	-1732
▁South	-1733
▁treatment	-1734
20	-1735
▁Man	-1736
▁reason	-1737
▁whether	-1738
▁11	-1739
right	-1740
▁require	-1741
▁After	-1742
▁production	-1743
artment	-1744
itary	-1745
▁conditions	-1746
chie	-1747
▁z	-1748
__	-1749
for	-1750
▁X	-1751
▁either	-1752
▁stat	-1753
▁Dep	-1754
▁deg	-1755
▁always	-1756
▁dom	-1757
▁complete	-1758
▁question	-1759
yl	-1760
▁evidence	-1761
▁seen	-1762
ream	-1763
erc	-1764
▁chem	-1765
▁give	-1766
itor	-1767
port	-1768
atures	-1769
▁His	-1770
overed	-1771
▁histor	-1772
▁toward	-1773
aves	-1774
ols	-1775
▁Earth	-1776
my	-1777
sw	-1778
urb	-1779
ison	-1780
▁prob	-1781
▁arg	-1782
▁English	-1783
▁wind	-1784
iol	-1785
▁concept	-1786
sych	-1787
▁across	-1788
▁phot	-1789
aut	-1790
augh	-1791
ites	-1792
itud	-1793
▁close	-1794
▁account	-1795
▁No	-1796
ournal	-1797
▁cho	-1798
▁Dr	-1799
plic	-1800
▁having	-1801
rict	-1802
▁single	-1803
ibility	-1804
8,	-1805
▁came	-1806
ER	-1807
yn	-1808
▁init	-1809
▁parent	-1810
lo	-1811
ready	-1812
ery	-1813
▁especially	-1814
side	-1815
▁something	-1816
▁tot	-1817
ches	-1818
):	-1819
ires	-1820
▁away	-1821
▁effects	-1822
▁ge	-1823
▁ask	-1824
▁ann	-1825
▁ess	-1826
▁economic	-1827
eb	-1828
▁Am	-1829
▁tradition	-1830
▁taken	-1831
▁sens	-1832
▁dest	-1833
ush	-1834
rug	-1835
▁0	-1836
▁nature	-1837
▁meet	-1838
oot	-1839
▁princi	-1840
reg	-1841
bon	-1842
unt	-1843
9,	-1844
▁enough	-1845
omes	-1846
▁return	-1847
▁14	-1848
▁194	-1849
▁role	-1850
▁house	-1851
uation	-1852
cul	-1853
▁five	-1854
▁la	-1855
sh	-1856
▁working	-1857
▁itself	-1858
▁value	-1859
rel	-1860
sequ	-1861
▁ri	-1862
ront	-1863
verage	-1864
▁recogn	-1865
ung	-1866
▁collect	-1867
▁resources	-1868
▁Ag	-1869
▁range	-1870
▁cases	-1871
▁Co	-1872
son	-1873
▁ey	-1874
6,	-1875
fer	-1876
atch	-1877
7,	-1878
▁building	-1879
▁began	-1880
▁net	-1881
30	-1882
iting	-1883
▁already	-1884
cle	-1885
rown	-1886
.)	-1887
▁engine	-1888
▁particip	-1889
▁fall	-1890
▁II	-1891
oney	-1892
▁states	-1893
▁according	-1894
thing	-1895
▁She	-1896
▁source	-1897
▁self	-1898
▁experience	-1899
estern	-1900
uel	-1901
▁Pol	-1902
▁create	-1903
▁bir	-1904
epend	-1905
▁introdu	-1906
▁Pr	-1907
▁published	-1908
▁abs	-1909
//	-1910
▁Aust	-1911
▁team	-1912
▁dr	-1913
▁thought	-1914
ule	-1915
▁detail	-1916
▁needs	-1917
▁30	-1918
▁size	-1919
▁whole	-1920
▁Gu	-1921
▁fail	-1922
▁lower	-1923
▁port	-1924
fact	-1925
▁norm	-1926
▁dam	-1927
▁themselves	-1928
iet	-1929
▁paper	-1930
ony	-1931
▁achie	-1932
NA	-1933
▁climate	-1934
▁doc	-1935
▁wide	-1936
▁modern	-1937
▁feel	-1938
▁Act	-1939
ried	-1940
▁employ	-1941
▁rights	-1942
▁Tr	-1943
▁While	-1944
▁claim	-1945
amm	-1946
▁key	-1947
▁ver	-1948
▁frequ	-1949
▁Research	-1950
org	-1951
▁cannot	-1952
▁brain	-1953
▁Cont	-1954
▁super	-1955
▁event	-1956
empt	-1957
rad	-1958
▁entire	-1959
▁hold	-1960
▁yet	-1961
▁sent	-1962
chan	-1963
roll	-1964
iation	-1965
ask	-1966
▁rate	-1967
▁arch	-1968
▁heart	-1969
▁created	-1970
▁mic	-1971
ederal	-1972
▁separ	-1973
▁growth	-1974
▁purp	-1975
etimes	-1976
▁mor	-1977
▁lay	-1978
▁took	-1979
eds	-1980
hib	-1981
▁almost	-1982
▁improve	-1983
illed	-1984
ades	-1985
▁done	-1986
ai	-1987
▁once	-1988
▁concern	-1989
▁activities	-1990
▁try	-1991
▁liter	-1992
reme	-1993
▁why	-1994
▁word	-1995
▁priv	-1996
▁potential	-1997
▁measure	-1998
apt	-1999
▁considered	-2000
ttp	-2001
://	-2002
▁business	-2003
igure	-2004
oon	-2005
11	-2006
apan	-2007
like	-2008
▁oil	-2009
minist	-2010
▁mind	-2011
▁plants	-2012
▁researchers	-2013
▁vers	-2014
iment	-2015
▁gas	-2016
▁required	-2017
▁ways	-2018
▁Instit	-2019
▁cop	-2020
▁opt	-2021
▁physical	-2022
atter	-2023
▁Pres	-2024
▁global	-2025
itted	-2026
sc	-2027
▁British	-2028
oura	-2029
acy	-2030
▁black	-2031
▁complex	-2032
ington	-2033
▁below	-2034
▁half	-2035
▁Health	-2036
▁increased	-2037
▁article	-2038
▁region	-2039
ene	-2040
▁going	-2041
▁rev	-2042
▁cut	-2043
▁white	-2044
▁Science	-2045
▁consum	-2046
▁materials	-2047
▁related	-2048
ensive	-2049
rect	-2050
ened	-2051
▁student	-2052
▁13	-2053
inc	-2054
aff	-2055
▁cancer	-2056
▁Although	-2057
▁address	-2058
▁2.	-2059
▁Will	-2060
▁bar	-2061
▁Sec	-2062
▁neg	-2063
▁patients	-2064
▁position	-2065
alt	-2066
▁activity	-2067
ES	-2068
▁coll	-2069
▁communic	-2070
▁six	-2071
▁quality	-2072
▁Su	-2073
▁programs	-2074
▁Many	-2075
▁schools	-2076
▁associated	-2077
▁provided	-2078
▁red	-2079
▁Des	-2080
▁conduct	-2081
ster	-2082
▁Japan	-2083
▁regard	-2084
oses	-2085
▁scientists	-2086
rie	-2087
▁wr	-2088
▁fish	-2089
ript	-2090
▁total	-2091
▁Canad	-2092
go	-2093
▁types	-2094
▁theory	-2095
▁makes	-2096
acc	-2097
▁structure	-2098
▁Par	-2099
gest	-2100
▁big	-2101
ights	-2102
pid	-2103
▁really	-2104
▁parts	-2105
▁=	-2106
acks	-2107
▁living	-2108
nces	-2109
▁earth	-2110
▁market	-2111
▁sound	-2112
▁famil	-2113
aries	-2114
▁computer	-2115
▁step	-2116
utions	-2117
rated	-2118
osition	-2119
ivity	-2120
▁cy	-2121
▁School	-2122
iddle	-2123
aring	-2124
AR	-2125
▁page	-2126
▁relative	-2127
▁(200	-2128
▁provides	-2129
▁Fl	-2130
▁sat	-2131
▁live	-2132
▁accept	-2133
▁Ed	-2134
▁pattern	-2135
▁force	-2136
▁Per	-2137
ables	-2138
ternal	-2139
▁story	-2140
vey	-2141
▁Acc	-2142
▁Me	-2143
▁terms	-2144
ese	-2145
AT	-2146
▁analysis	-2147
lege	-2148
ops	-2149
▁sense	-2150
▁recent	-2151
▁protect	-2152
▁100	-2153
▁necessary	-2154
▁needed	-2155
▁animals	-2156
▁chall	-2157
▁ever	-2158
ze	-2159
ulations	-2160
▁Ac	-2161
▁built	-2162
▁issues	-2163
usion	-2164
irm	-2165
▁Part	-2166
▁heav	-2167
▁Har	-2168
aged	-2169
▁relationship	-2170
▁idea	-2171
icles	-2172
▁environmental	-2173
▁policy	-2174
▁management	-2175
attle	-2176
amb	-2177
▁action	-2178
▁understanding	-2179
▁flu	-2180
12	-2181
▁approach	-2182
▁More	-2183
▁Pe	-2184
▁assess	-2185
rought	-2186
iding	-2187
urity	-2188
▁matter	-2189
▁deb	-2190
cil	-2191
▁sett	-2192
ricult	-2193
▁Min	-2194
▁rul	-2195
cient	-2196
ging	-2197
rench	-2198
▁sun	-2199
abit	-2200
▁services	-2201
izing	-2202
raft	-2203
ival	-2204
▁Jan	-2205
▁answ	-2206
▁Press	-2207
ief	-2208
▁lab	-2209
▁increasing	-2210
▁produce	-2211
▁fire	-2212
▁maint	-2213
▁true	-2214
▁questions	-2215
ply	-2216
erve	-2217
▁Other	-2218
ilos	-2219
ister	-2220
▁standard	-2221
▁attempt	-2222
▁loss	-2223
▁From	-2224
▁drug	-2225
duc	-2226
ched	-2227
▁image	-2228
▁actually	-2229
▁mechan	-2230
lands	-2231
inary	-2232
▁Aug	-2233
ores	-2234
19	-2235
▁original	-2236
▁society	-2237
▁greater	-2238
▁sam	-2239
▁opportun	-2240
onse	-2241
▁military	-2242
urs	-2243
▁cle	-2244
iction	-2245
▁previous	-2246
▁products	-2247
▁Comp	-2248
▁tell	-2249
arily	-2250
▁led	-2251
▁origin	-2252
▁camp	-2253
▁Center	-2254
▁Ju	-2255
▁emer	-2256
▁simple	-2257
ached	-2258
▁service	-2259
▁tar	-2260
▁Most	-2261
▁Bo	-2262
▁practice	-2263
based	-2264
▁bur	-2265
▁fri	-2266
▁pay	-2267
atives	-2268
▁react	-2269
ips	-2270
eration	-2271
▁soil	-2272
▁shows	-2273
ceed	-2274
hing	-2275
imately	-2276
▁thus	-2277
cies	-2278
lying	-2279
ervation	-2280
▁months	-2281
▁Department	-2282
▁App	-2283
anced	-2284
▁scientific	-2285
▁repl	-2286
▁Qu	-2287
▁shown	-2288
▁pressure	-2289
oll	-2290
▁behavior	-2291
itation	-2292
▁reported	-2293
▁King	-2294
▁generally	-2295
▁link	-2296
▁50	-2297
ee	-2298
▁shall	-2299
▁instit	-2300
▁Int	-2301
▁integ	-2302
▁demon	-2303
▁ability	-2304
▁effic	-2305
ius	-2306
▁late	-2307
▁respect	-2308
▁affect	-2309
▁viol	-2310
istics	-2311
▁magn	-2312
▁subst	-2313
▁objects	-2314
▁produced	-2315
▁forest	-2316
▁Calif	-2317
▁throughout	-2318
uck	-2319
lt	-2320
▁effective	-2321
▁established	-2322
▁http	-2323
umb	-2324
▁industry	-2325
ney	-2326
irit	-2327
ows	-2328
ON	-2329
▁Do	-2330
▁movement	-2331
▁Fran	-2332
▁ago	-2333
▁path	-2334
het	-2335
▁money	-2336
▁Ret	-2337
▁civil	-2338
▁Count	-2339
▁dig	-2340
lex	-2341
▁green	-2342
▁held	-2343
rial	-2344
▁series	-2345
▁displ	-2346
uary	-2347
-0	-2348
▁written	-2349
▁surv	-2350
▁forms	-2351
haps	-2352
▁interact	-2353
▁squ	-2354
▁issue	-2355
▁recomm	-2356
▁div	-2357
▁farm	-2358
▁chemical	-2359
▁...	-2360
▁sou	-2361
istance	-2362
▁Educ	-2363
utes	-2364
▁popular	-2365
▁travel	-2366
▁longer	-2367
amed	-2368
▁Wash	-2369
▁whose	-2370
▁West	-2371
▁temperature	-2372
▁Rec	-2373
▁international	-2374
vere	-2375
▁designed	-2376
bo	-2377
fully	-2378
pri	-2379
▁dou	-2380
▁feet	-2381
▁,	-2382
rew	-2383
hold	-2384
eed	-2385
▁Apr	-2386
▁25	-2387
▁Oct	-2388
▁sources	-2389
▁fa	-2390
▁doct	-2391
▁involved	-2392
▁labor	-2393
▁sex	-2394
IS	-2395
▁Gl	-2396
oles	-2397
rate	-2398
▁soft	-2399
olic	-2400
▁average	-2401
ma	-2402
▁sea	-2403
know	-2404
▁emb	-2405
▁earl	-2406
erous	-2407
ump	-2408
▁color	-2409
▁Institute	-2410
▁Austral	-2411
▁town	-2412
uth	-2413
thern	-2414
▁review	-2415
▁events	-2416
▁medical	-2417
inter	-2418
hood	-2419
▁Pre	-2420
▁compet	-2421
ography	-2422
▁week	-2423
osis	-2424
▁independ	-2425
dom	-2426
ift	-2427
▁Cons	-2428
▁French	-2429
▁probably	-2430
▁sometimes	-2431
▁hours	-2432
▁Char	-2433
▁ut	-2434
isions	-2435
▁although	-2436
▁Californ	-2437
▁nation	-2438
itude	-2439
ribution	-2440
▁pict	-2441
ressed	-2442
▁June	-2443
▁particularly	-2444
▁log	-2445
rast	-2446
▁tax	-2447
▁Sm	-2448
▁coun	-2449
▁El	-2450
▁included	-2451
ising	-2452
▁ste	-2453
▁exc	-2454
▁consist	-2455
▁pp	-2456
▁adult	-2457
▁carbon	-2458
▁culture	-2459
Th	-2460
▁content	-2461
▁training	-2462
bor	-2463
▁psych	-2464
ctions	-2465
▁parents	-2466
",	-2467
▁/	-2468
▁ens	-2469
▁therefore	-2470
new	-2471
▁basic	-2472
ror	-2473
issions	-2474
▁investig	-2475
useum	-2476
▁simply	-2477
▁suff	-2478
▁implement	-2479
aging	-2480
▁personal	-2481
▁quick	-2482
pro	-2483
▁March	-2484
▁estim	-2485
▁stri	-2486
▁believe	-2487
▁fem	-2488
▁ang	-2489
▁California	-2490
▁prote	-2491
▁reduce	-2492
▁factors	-2493
▁European	-2494
ufact	-2495
▁Dav	-2496
▁Sept	-2497
ID	-2498
▁reading	-2499
▁Washington	-2500
▁Mc	-2501
see	-2502
▁methods	-2503
▁History	-2504
▁refer	-2505
erson	-2506
▁mach	-2507
▁August	-2508
▁Govern	-2509
oly	-2510
▁individuals	-2511
amin	-2512
▁deep	-2513
▁sure	-2514
reng	-2515
ned	-2516
▁includes	-2517
yle	-2518
▁response	-2519
ength	-2520
▁meaning	-2521
▁skills	-2522
▁Indian	-2523
IN	-2524
▁During	-2525
ille	-2526
▁China	-2527
undred	-2528
▁compon	-2529
▁Cong	-2530
▁north	-2531
▁feed	-2532
▁select	-2533
▁contact	-2534
cean	-2535
▁International	-2536
-3	-2537
▁Cor	-2538
▁German	-2539
▁bring	-2540
▁i	-2541
rand	-2542
verse	-2543
▁official	-2544
▁ord	-2545
▁thous	-2546
▁concent	-2547
ibrary	-2548
▁Tw	-2549
vention	-2550
▁outside	-2551
▁threat	-2552
▁nuc	-2553
▁See	-2554
mon	-2555
mpt	-2556
▁medic	-2557
▁draw	-2558
▁Bec	-2559
▁decl	-2560
▁reflect	-2561
ening	-2562
▁cit	-2563
▁target	-2564
▁William	-2565
rance	-2566
▁lot	-2567
▁3.	-2568
▁teachers	-2569
OR	-2570
▁uses	-2571
hel	-2572
▁br	-2573
▁numbers	-2574
▁Of	-2575
▁larger	-2576
▁appl	-2577
▁thing	-2578
▁cross	-2579
ections	-2580
urg	-2581
▁job	-2582
▁himself	-2583
hern	-2584
▁ce	-2585
▁sil	-2586
▁eth	-2587
:1	-2588
▁195	-2589
▁poor	-2590
▁religious	-2591
▁Bar	-2592
▁models	-2593
▁face	-2594
▁variety	-2595
▁music	-2596
▁broad	-2597
▁Art	-2598
▁wood	-2599
▁central	-2600
aul	-2601
▁Christian	-2602
▁July	-2603
▁etc	-2604
imens	-2605
▁According	-2606
▁First	-2607
▁Not	-2608
▁(199	-2609
▁President	-2610
▁193	-2611
▁leaders	-2612
itte	-2613
▁slow	-2614
▁River	-2615
rs	-2616
ground	-2617
▁Church	-2618
▁jud	-2619
▁1,	-2620
▁obt	-2621
▁unc	-2622
▁Prog	-2623
▁south	-2624
▁April	-2625
ads	-2626
www	-2627
▁appropri	-2628
omet	-2629
▁heat	-2630
▁caused	-2631
elt	-2632
ford	-2633
▁described	-2634
▁IS	-2635
▁hyd	-2636
▁capt	-2637
);	-2638
▁remov	-2639
aving	-2640
▁except	-2641
▁front	-2642
▁wall	-2643
▁interp	-2644
asc	-2645
▁forces	-2646
▁attack	-2647
▁defin	-2648
▁nut	-2649
▁ideas	-2650
ana	-2651
ridge	-2652
▁Gree	-2653
▁ple	-2654
▁points	-2655
▁cat	-2656
▁third	-2657
▁lack	-2658
▁document	-2659
▁weight	-2660
▁mount	-2661
▁writing	-2662
▁sold	-2663
▁developing	-2664
▁eval	-2665
▁streng	-2666
rim	-2667
ondon	-2668
▁seems	-2669
▁wild	-2670
▁quant	-2671
enced	-2672
▁condition	-2673
▁Reg	-2674
▁Serv	-2675
▁company	-2676
▁India	-2677
orthern	-2678
▁Russ	-2679
▁Ant	-2680
▁warm	-2681
▁went	-2682
▁administ	-2683
▁received	-2684
▁Vol	-2685
iers	-2686
uman	-2687
▁hundred	-2688
ners	-2689
formation	-2690
AN	-2691
▁fav	-2692
▁books	-2693
▁comes	-2694
▁Sch	-2695
▁demonstr	-2696
▁contain	-2697
▁Us	-2698
imum	-2699
inks	-2700
▁primary	-2701
▁print	-2702
▁x	-2703
▁capital	-2704
▁constit	-2705
▁taking	-2706
ronic	-2707
▁Tra	-2708
▁manufact	-2709
▁break	-2710
▁quite	-2711
▁*	-2712
▁Since	-2713
▁extreme	-2714
uge	-2715
▁ap	-2716
▁brought	-2717
▁animal	-2718
order	-2719
▁disp	-2720
cember	-2721
▁ir	-2722
▁attention	-2723
osure	-2724
▁Her	-2725
astic	-2726
overy	-2727
ises	-2728
▁shape	-2729
ilosoph	-2730
▁reve	-2731
▁Africa	-2732
▁cover	-2733
▁private	-2734
mosp	-2735
▁My	-2736
na	-2737
rote	-2738
▁tend	-2739
yond	-2740
▁0.	-2741
▁sum	-2742
aches	-2743
▁40	-2744
IC	-2745
where	-2746
▁encoura	-2747
▁limited	-2748
rieved	-2749
▁poll	-2750
▁establish	-2751
▁altern	-2752
ino	-2753
light	-2754
▁General	-2755
inct	-2756
▁der	-2757
▁deal	-2758
▁compan	-2759
▁section	-2760
▁soon	-2761
▁nearly	-2762
▁beginning	-2763
aly	-2764
▁traditional	-2765
▁Now	-2766
lation	-2767
▁electric	-2768
▁Feb	-2769
ields	-2770
▁Associ	-2771
▁images	-2772
▁performance	-2773
▁base	-2774
▁search	-2775
▁directly	-2776
rael	-2777
▁normal	-2778
▁miles	-2779
▁talk	-2780
▁perm	-2781
ems	-2782
ties	-2783
▁added	-2784
▁Child	-2785
oor	-2786
rab	-2787
▁fram	-2788
▁influence	-2789
▁prep	-2790
▁vide	-2791
▁command	-2792
▁Journal	-2793
▁ful	-2794
▁spread	-2795
hemat	-2796
▁England	-2797
▁continue	-2798
isms	-2799
▁African	-2800
▁September	-2801
▁Mus	-2802
lim	-2803
80	-2804
▁mother	-2805
▁online	-2806
apter	-2807
▁sust	-2808
bit	-2809
40	-2810
IV	-2811
▁October	-2812
ha	-2813
▁evolution	-2814
▁hor	-2815
ellow	-2816
▁Ec	-2817
▁efforts	-2818
EN	-2819
▁prior	-2820
▁values	-2821
▁additional	-2822
▁correct	-2823
▁former	-2824
▁multip	-2825
▁instead	-2826
▁coast	-2827
▁identify	-2828
▁lines	-2829
ulated	-2830
▁January	-2831
cell	-2832
den	-2833
▁exerc	-2834
▁lives	-2835
che	-2836
▁serious	-2837
▁Mon	-2838
encies	-2839
fficient	-2840
ev	-2841
uk	-2842
▁communities	-2843
▁commer	-2844
pper	-2845
▁immedi	-2846
ously	-2847
▁21	-2848
▁appe	-2849
▁achieve	-2850
fect	-2851
ingu	-2852
anks	-2853
▁growing	-2854
▁night	-2855
room	-2856
▁highly	-2857
▁stop	-2858
▁lands	-2859
▁purpose	-2860
men	-2861
▁aspect	-2862
▁prec	-2863
▁Sw	-2864
▁center	-2865
▁progress	-2866
▁Education	-2867
ying	-2868
▁mess	-2869
ovember	-2870
ls	-2871
istry	-2872
▁useful	-2873
ittee	-2874
aces	-2875
uments	-2876
▁ox	-2877
ider	-2878
▁determine	-2879
▁Here	-2880
▁adop	-2881
▁Inc	-2882
▁network	-2883
▁doing	-2884
▁basis	-2885
▁sal	-2886
▁sites	-2887
▁London	-2888
▁fat	-2889
▁federal	-2890
▁bott	-2891
▁inj	-2892
▁continued	-2893
▁Mod	-2894
▁sympt	-2895
We	-2896
ription	-2897
▁Techn	-2898
▁Because	-2899
▁solar	-2900
▁positive	-2901
▁gradu	-2902
▁academ	-2903
▁elements	-2904
▁ice	-2905
osing	-2906
▁agricult	-2907
▁December	-2908
set	-2909
▁agree	-2910
▁ancient	-2911
▁transport	-2912
ham	-2913
rag	-2914
▁spirit	-2915
▁City	-2916
year	-2917
elling	-2918
ounds	-2919
▁teaching	-2920
ocr	-2921
▁accom	-2922
▁host	-2923
▁mole	-2924
ico	-2925
▁rock	-2926
hens	-2927
▁laws	-2928
ming	-2929
▁features	-2930
hy	-2931
60	-2932
edia	-2933
▁rapid	-2934
▁Israel	-2935
▁lost	-2936
▁takes	-2937
cks	-2938
izations	-2939
▁wrote	-2940
▁decades	-2941
13	-2942
▁speak	-2943
PA	-2944
▁24	-2945
▁instru	-2946
▁Great	-2947
▁capac	-2948
▁Coun	-2949
▁San	-2950
▁contribut	-2951
ari	-2952
▁Sim	-2953
▁love	-2954
▁Congress	-2955
▁trade	-2956
▁visit	-2957
▁Retrieved	-2958
▁active	-2959
▁Develop	-2960
▁son	-2961
▁fuel	-2962
rig	-2963
▁Bi	-2964
▁Im	-2965
wise	-2966
▁clean	-2967
▁tools	-2968
▁application	-2969
itect	-2970
▁Jewish	-2971
pite	-2972
▁ten	-2973
▁families	-2974
▁Ma	-2975
ulate	-2976
▁arm	-2977
▁critical	-2978
iques	-2979
ext	-2980
aily	-2981
ologies	-2982
-19	-2983
racy	-2984
iles	-2985
▁workers	-2986
▁jo	-2987
ternet	-2988
▁property	-2989
▁length	-2990
▁largest	-2991
▁nothing	-2992
▁media	-2993
▁Thus	-2994
▁saw	-2995
▁rout	-2996
▁micro	-2997
ama	-2998
▁mid	-2999
estic	-3000
asons	-3001
▁Commun	-3002
▁Even	-3003
▁processes	-3004
▁und	-3005
▁regular	-3006
▁standards	-3007
In	-3008
▁Canada	-3009
▁sch	-3010
▁behind	-3011
▁located	-3012
omb	-3013
▁share	-3014
▁Society	-3015
▁bal	-3016
▁Web	-3017
▁causes	-3018
▁Vir	-3019
▁transm	-3020
lin	-3021
▁skin	-3022
▁fru	-3023
ica	-3024
▁king	-3025
▁Law	-3026
▁remain	-3027
▁difference	-3028
▁supply	-3029
term	-3030
▁System	-3031
▁predict	-3032
aters	-3033
lam	-3034
▁father	-3035
▁cultural	-3036
▁East	-3037
▁expect	-3038
ara	-3039
inese	-3040
▁easy	-3041
▁atmosp	-3042
▁habit	-3043
▁followed	-3044
▁arri	-3045
▁Trans	-3046
▁died	-3047
▁else	-3048
▁demand	-3049
▁adj	-3050
▁Americans	-3051
iency	-3052
▁mill	-3053
▁den	-3054
▁rates	-3055
▁collection	-3056
IT	-3057
▁cust	-3058
▁November	-3059
▁dark	-3060
▁citiz	-3061
▁County	-3062
▁formed	-3063
▁final	-3064
used	-3065
▁speed	-3066
▁construction	-3067
▁4.	-3068
ruary	-3069
▁Mex	-3070
▁leading	-3071
▁nar	-3072
▁occup	-3073
arian	-3074
▁easily	-3075
▁190	-3076
▁remains	-3077
▁Arch	-3078
nov	-3079
▁humans	-3080
rapy	-3081
▁ult	-3082
▁appropriate	-3083
▁finan	-3084
▁trees	-3085
ils	-3086
rees	-3087
ought	-3088
▁Jes	-3089
▁approx	-3090
▁carry	-3091
▁sequ	-3092
▁proced	-3093
▁projects	-3094
▁Cour	-3095
leep	-3096
alled	-3097
▁damage	-3098
▁beyond	-3099
▁har	-3100
▁earlier	-3101
▁safety	-3102
irection	-3103
ixed	-3104
▁compared	-3105
▁tree	-3106
▁Roman	-3107
▁assum	-3108
▁hous	-3109
▁unique	-3110
▁situation	-3111
▁started	-3112
semb	-3113
▁costs	-3114
▁perhaps	-3115
airs	-3116
▁Sur	-3117
inated	-3118
iber	-3119
▁ep	-3120
▁aud	-3121
▁decision	-3122
-4	-3123
head	-3124
▁avoid	-3125
iar	-3126
water	-3127
▁mission	-3128
ED	-3129
▁wa	-3130
▁Union	-3131
cious	-3132
▁effort	-3133
▁Ke	-3134
▁192	-3135
▁cam	-3136
▁Park	-3137
▁colon	-3138
▁Fin	-3139
▁symb	-3140
▁strateg	-3141
▁expected	-3142
pan	-3143
▁church	-3144
▁mention	-3145
▁contains	-3146
▁dang	-3147
▁vict	-3148
▁diagn	-3149
▁Pat	-3150
▁Environment	-3151
rest	-3152
▁House	-3153
▁historical	-3154
enth	-3155
15	-3156
▁2010	-3157
itch	-3158
▁James	-3159
▁veh	-3160
uries	-3161
AC	-3162
▁acqu	-3163
▁volume	-3164
▁told	-3165
▁degree	-3166
It	-3167
▁cred	-3168
▁22	-3169
▁recently	-3170
▁High	-3171
▁Prof	-3172
▁protection	-3173
▁illust	-3174
▁continu	-3175
orge	-3176
aught	-3177
▁Chinese	-3178
▁NAS	-3179
▁mom	-3180
rogen	-3181
▁check	-3182
ension	-3183
▁Ro	-3184
▁symptoms	-3185
▁•	-3186
▁exec	-3187
iff	-3188
▁eight	-3189
▁tit	-3190
▁Then	-3191
▁companies	-3192
▁places	-3193
▁virt	-3194
oming	-3195
▁gave	-3196
roy	-3197
▁economy	-3198
▁conflic	-3199
▁ur	-3200
▁Dis	-3201
▁inside	-3202
▁benefits	-3203
aced	-3204
▁aware	-3205
reet	-3206
▁month	-3207
vant	-3208
▁appears	-3209
ky	-3210
▁news	-3211
ipment	-3212
▁placed	-3213
▁billion	-3214
▁software	-3215
▁hands	-3216
resp	-3217
izes	-3218
▁consequ	-3219
▁Our	-3220
▁looking	-3221
▁pen	-3222
▁challeng	-3223
▁exact	-3224
▁surround	-3225
▁decre	-3226
▁depend	-3227
▁foot	-3228
▁webs	-3229
▁analy	-3230
off	-3231
▁middle	-3232
▁security	-3233
▁allows	-3234
▁memory	-3235
▁pan	-3236
▁born	-3237
▁harm	-3238
equ	-3239
▁stra	-3240
ellig	-3241
▁Public	-3242
▁answer	-3243
▁Pal	-3244
▁got	-3245
ech	-3246
▁clin	-3247
ula	-3248
iece	-3249
▁quickly	-3250
▁Phil	-3251
▁compar	-3252
▁member	-3253
▁importance	-3254
▁CO	-3255
edom	-3256
▁multiple	-3257
▁Rev	-3258
▁hot	-3259
▁offer	-3260
▁scale	-3261
18	-3262
▁Government	-3263
▁legal	-3264
▁Council	-3265
inate	-3266
▁table	-3267
▁2012	-3268
oted	-3269
sec	-3270
▁2011	-3271
AL	-3272
▁smaller	-3273
II	-3274
iments	-3275
▁extra	-3276
▁stru	-3277
▁relatively	-3278
ancy	-3279
▁display	-3280
phas	-3281
▁beg	-3282
▁tele	-3283
▁February	-3284
oes	-3285
▁foreign	-3286
▁towards	-3287
▁rise	-3288
▁2009	-3289
▁construct	-3290
▁Rel	-3291
▁dog	-3292
itting	-3293
aled	-3294
▁Ob	-3295
▁Rober	-3296
▁fight	-3297
▁birth	-3298
▁court	-3299
▁requires	-3300
▁Just	-3301
▁imag	-3302
▁dead	-3303
▁direction	-3304
udd	-3305
▁France	-3306
▁Each	-3307
▁becomes	-3308
▁rare	-3309
▁Val	-3310
▁allowed	-3311
omas	-3312
▁Inter	-3313
▁advant	-3314
urban	-3315
▁veget	-3316
▁bound	-3317
entially	-3318
▁David	-3319
▁bit	-3320
▁189	-3321
▁controll	-3322
▁star	-3323
▁186	-3324
hest	-3325
▁cou	-3326
▁Academ	-3327
aped	-3328
▁Mor	-3329
▁Program	-3330
idents	-3331
vest	-3332
▁patient	-3333
▁Ang	-3334
▁Green	-3335
▁respond	-3336
▁:	-3337
gypt	-3338
▁ball	-3339
▁stress	-3340
▁techniques	-3341
▁distance	-3342
▁applications	-3343
▁lif	-3344
ensity	-3345
▁summer	-3346
con	-3347
▁essential	-3348
▁Cath	-3349
▁applied	-3350
▁asked	-3351
▁planet	-3352
▁eye	-3353
▁safe	-3354
odies	-3355
ender	-3356
▁Also	-3357
▁Prot	-3358
illing	-3359
▁Em	-3360
▁Another	-3361
▁teacher	-3362
▁differences	-3363
▁ones	-3364
▁version	-3365
unch	-3366
▁date	-3367
su	-3368
▁doesn	-3369
▁legis	-3370
▁Germany	-3371
▁named	-3372
▁river	-3373
▁calcul	-3374
▁organization	-3375
oke	-3376
king	-3377
3)	-3378
▁alone	-3379
▁game	-3380
ament	-3381
▁Western	-3382
▁2008	-3383
▁Cur	-3384
▁hyp	-3385
can	-3386
70	-3387
oring	-3388
▁Red	-3389
▁code	-3390
▁Association	-3391
▁goal	-3392
▁video	-3393
ector	-3394
▁discovered	-3395
oration	-3396
ira	-3397
vert	-3398
▁nuclear	-3399
▁Under	-3400
ym	-3401
▁reports	-3402
16	-3403
▁bacter	-3404
▁hon	-3405
▁stage	-3406
▁gold	-3407
imal	-3408
enty	-3409
▁responsible	-3410
▁solid	-3411
uff	-3412
▁NASA	-3413
▁element	-3414
▁aim	-3415
▁virus	-3416
▁existing	-3417
▁identified	-3418
sect	-3419
▁dry	-3420
oe	-3421
▁neigh	-3422
▁Lat	-3423
EC	-3424
▁gives	-3425
▁belief	-3426
itable	-3427
▁Mr	-3428
▁Water	-3429
200	-3430
25	-3431
anish	-3432
erg	-3433
▁measures	-3434
ocks	-3435
▁successful	-3436
▁severe	-3437
▁TH	-3438
▁anything	-3439
aign	-3440
▁sem	-3441
▁room	-3442
▁fast	-3443
eks	-3444
gar	-3445
▁unit	-3446
▁Egypt	-3447
▁rule	-3448
▁Over	-3449
▁60	-3450
▁Mich	-3451
▁observed	-3452
▁Jesus	-3453
ographic	-3454
▁tiss	-3455
▁equal	-3456
▁rain	-3457
asion	-3458
▁hope	-3459
▁reach	-3460
-5	-3461
▁Paul	-3462
▁Ass	-3463
iest	-3464
wide	-3465
▁peace	-3466
▁Their	-3467
▁currently	-3468
▁equipment	-3469
▁philosoph	-3470
▁Jews	-3471
que	-3472
▁2007	-3473
▁repe	-3474
▁College	-3475
14	-3476
▁status	-3477
▁bul	-3478
▁web	-3479
▁majority	-3480
▁thinking	-3481
ogen	-3482
▁user	-3483
▁rat	-3484
▁vacc	-3485
▁waste	-3486
yp	-3487
▁Inst	-3488
come	-3489
pped	-3490
leb	-3491
mar	-3492
▁names	-3493
▁bad	-3494
▁Air	-3495
▁Republic	-3496
atur	-3497
olar	-3498
▁sustain	-3499
life	-3500
aid	-3501
▁Human	-3502
▁electr	-3503
▁solution	-3504
umn	-3505
▁tests	-3506
▁capacity	-3507
▁pack	-3508
▁regions	-3509
cape	-3510
▁fair	-3511
lor	-3512
▁context	-3513
▁architect	-3514
▁faith	-3515
▁presented	-3516
____	-3517
▁pow	-3518
▁separate	-3519
▁party	-3520
▁season	-3521
▁commercial	-3522
▁exhib	-3523
iverse	-3524
▁mer	-3525
▁UN	-3526
▁diet	-3527
▁anti	-3528
▁vill	-3529
▁constant	-3530
atab	-3531
▁rules	-3532
▁location	-3533
known	-3534
▁visual	-3535
oud	-3536
▁mathemat	-3537
rant	-3538
▁George	-3539
▁mis	-3540
▁poly	-3541
▁summ	-3542
▁changed	-3543
rief	-3544
▁adm	-3545
▁corn	-3546
▁categ	-3547
ste	-3548
▁Bra	-3549
▁max	-3550
▁phen	-3551
▁financial	-3552
▁expand	-3553
▁ensure	-3554
▁defined	-3555
▁nor	-3556
aint	-3557
▁23	-3558
▁Why	-3559
▁Off	-3560
▁cool	-3561
▁bab	-3562
ession	-3563
▁beaut	-3564
▁negative	-3565
▁reduced	-3566
wards	-3567
time	-3568
▁initi	-3569
▁device	-3570
▁providing	-3571
▁Museum	-3572
▁examples	-3573
▁susp	-3574
▁truth	-3575
BN	-3576
▁office	-3577
▁getting	-3578
back	-3579
ald	-3580
▁spect	-3581
aling	-3582
▁president	-3583
▁whom	-3584
▁acid	-3585
▁enter	-3586
nes	-3587
▁tool	-3588
apers	-3589
▁genetic	-3590
▁stream	-3591
-8	-3592
▁exposure	-3593
ribute	-3594
▁receive	-3595
▁road	-3596
▁La	-3597
▁Read	-3598
▁emphas	-3599
▁communication	-3600
▁doub	-3601
▁write	-3602
▁academic	-3603
antic	-3604
▁carried	-3605
▁Are	-3606
era	-3607
▁weather	-3608
▁operations	-3609
▁properties	-3610
▁practices	-3611
▁mag	-3612
▁screen	-3613
▁worked	-3614
▁minutes	-3615
▁passed	-3616
▁enj	-3617
▁eat	-3618
▁showed	-3619
otic	-3620
ett	-3621
▁Lear	-3622
▁reference	-3623
▁daily	-3624
house	-3625
▁Australia	-3626
▁educational	-3627
▁patterns	-3628
▁univers	-3629
▁diseases	-3630
▁DNA	-3631
▁Lord	-3632
▁sleep	-3633
....	-3634
uls	-3635
▁limit	-3636
▁powerful	-3637
▁mut	-3638
▁Mary	-3639
▁staff	-3640
▁woman	-3641
▁walk	-3642
▁interesting	-3643
cast	-3644
▁map	-3645
resh	-3646
wor	-3647
▁Development	-3648
▁survey	-3649
rehens	-3650
▁sac	-3651
▁healthy	-3652
17	-3653
tical	-3654
▁assign	-3655
osy	-3656
ospital	-3657
▁transfer	-3658
▁presence	-3659
▁Ev	-3660
orders	-3661
▁emot	-3662
▁structures	-3663
▁dyn	-3664
▁incor	-3665
▁Dec	-3666
▁Rich	-3667
▁monitor	-3668
▁moved	-3669
▁Greek	-3670
▁protein	-3671
▁citizens	-3672
▁moving	-3673
▁file	-3674
▁Je	-3675
▁Dem	-3676
▁testing	-3677
▁approximately	-3678
▁block	-3679
▁distribution	-3680
▁discussion	-3681
▁Two	-3682
▁typically	-3683
more	-3684
▁trad	-3685
▁Japanese	-3686
inking	-3687
▁Army	-3688
iny	-3689
▁weeks	-3690
▁radio	-3691
rick	-3692
ests	-3693
▁opportunity	-3694
bl	-3695
▁birds	-3696
co	-3697
respond	-3698
▁autom	-3699
▁copy	-3700
osa	-3701
icip	-3702
▁Mat	-3703
▁destroy	-3704
▁eyes	-3705
▁reasons	-3706
▁rot	-3707
▁style	-3708
pir	-3709
ience	-3710
▁older	-3711
ST	-3712
▁industrial	-3713
cip	-3714
▁coming	-3715
▁Project	-3716
▁introduced	-3717
▁fear	-3718
ects	-3719
▁figure	-3720
eles	-3721
▁friends	-3722
isher	-3723
▁Court	-3724
▁picture	-3725
▁Plan	-3726
▁Sub	-3727
clus	-3728
▁noted	-3729
▁cities	-3730
▁occurs	-3731
▁Tod	-3732
▁purch	-3733
ologists	-3734
▁enh	-3735
▁Black	-3736
▁Ber	-3737
▁instance	-3738
▁believed	-3739
▁completely	-3740
▁evalu	-3741
▁Internet	-3742
▁creation	-3743
▁won	-3744
▁sn	-3745
▁miss	-3746
▁clearly	-3747
▁suppl	-3748
▁Tex	-3749
▁Your	-3750
ET	-3751
enge	-3752
▁Mars	-3753
ibly	-3754
▁moment	-3755
▁organizations	-3756
▁religion	-3757
▁card	-3758
▁contrast	-3759
▁Spe	-3760
▁creating	-3761
hors	-3762
▁devices	-3763
▁Fore	-3764
▁emissions	-3765
▁Social	-3766
ulf	-3767
Ch	-3768
▁soci	-3769
▁literature	-3770
▁custom	-3771
▁Let	-3772
▁lat	-3773
This	-3774
▁fully	-3775
▁Found	-3776
stitution	-3777
▁seven	-3778
▁proposed	-3779
▁independent	-3780
▁hom	-3781
▁lib	-3782
raw	-3783
▁Hen	-3784
▁fig	-3785
force	-3786
▁west	-3787
iable	-3788
▁alt	-3789
ii	-3790
▁2,	-3791
▁ISBN	-3792
▁leave	-3793
▁Phys	-3794
▁feature	-3795
▁someone	-3796
▁dro	-3797
▁everything	-3798
▁+	-3799
abet	-3800
▁Aut	-3801
▁actual	-3802
▁functions	-3803
▁contract	-3804
▁suggests	-3805
▁rob	-3806
▁benefit	-3807
▁reserv	-3808
ares	-3809
▁graph	-3810
▁urban	-3811
▁fields	-3812
▁thousands	-3813
▁Sun	-3814
abilities	-3815
▁tro	-3816
▁journal	-3817
▁ign	-3818
▁gard	-3819
urt	-3820
▁price	-3821
▁generation	-3822
2)	-3823
▁Thomas	-3824
▁Robert	-3825
▁mental	-3826
▁Islam	-3827
▁opin	-3828
▁Service	-3829
▁leaves	-3830
▁film	-3831
▁express	-3832
▁plans	-3833
▁gene	-3834
▁2000	-3835
▁divid	-3836
▁ocean	-3837
▁website	-3838
▁conv	-3839
▁note	-3840
▁Miss	-3841
▁(18	-3842
book	-3843
78	-3844
ortion	-3845
ago	-3846
▁Mic	-3847
▁distinct	-3848
▁meeting	-3849
▁radiation	-3850
▁records	-3851
▁ast	-3852
▁cry	-3853
amental	-3854
▁Sam	-3855
▁trib	-3856
▁female	-3857
▁adults	-3858
▁rich	-3859
cop	-3860
stronom	-3861
▁planning	-3862
▁assist	-3863
leg	-3864
odes	-3865
bre	-3866
olved	-3867
▁native	-3868
pris	-3869
▁trying	-3870
▁southern	-3871
itz	-3872
▁enjoy	-3873
iance	-3874
▁units	-3875
▁heavy	-3876
▁persons	-3877
ht	-3878
▁goes	-3879
cipl	-3880
▁collabor	-3881
▁populations	-3882
▁arr	-3883
rition	-3884
▁People	-3885
▁slight	-3886
▁minor	-3887
uild	-3888
▁Sen	-3889
▁liqu	-3890
▁estimated	-3891
▁remained	-3892
ken	-3893
iant	-3894
▁actions	-3895
▁mig	-3896
▁kids	-3897
▁experiment	-3898
▁5.	-3899
▁stay	-3900
alle	-3901
oper	-3902
▁territ	-3903
▁Hol	-3904
▁components	-3905
road	-3906
orial	-3907
rupt	-3908
porary	-3909
▁piece	-3910
▁cru	-3911
▁explain	-3912
▁interpret	-3913
▁findings	-3914
St	-3915
▁Lou	-3916
▁existence	-3917
▁principles	-3918
▁initial	-3919
▁Space	-3920
ero	-3921
▁eventually	-3922
▁professional	-3923
roup	-3924
ander	-3925
▁technologies	-3926
rations	-3927
▁Mount	-3928
▁26	-3929
▁exercise	-3930
▁users	-3931
▁qual	-3932
▁Use	-3933
▁turned	-3934
▁bran	-3935
▁Scient	-3936
▁commonly	-3937
acific	-3938
▁instruct	-3939
▁battle	-3940
▁institutions	-3941
coh	-3942
▁upper	-3943
▁campaign	-3944
load	-3945
▁forward	-3946
▁via	-3947
vision	-3948
idel	-3949
change	-3950
ida	-3951
▁authority	-3952
▁determined	-3953
▁correspond	-3954
▁perfect	-3955
▁resource	-3956
▁affected	-3957
▁buildings	-3958
▁colle	-3959
related	-3960
▁overall	-3961
▁serve	-3962
▁Students	-3963
▁Port	-3964
▁decade	-3965
-6	-3966
▁bra	-3967
▁apparent	-3968
och	-3969
▁Mil	-3970
▁winter	-3971
▁transl	-3972
▁requirements	-3973
▁worth	-3974
aker	-3975
▁Commission	-3976
▁atmosphere	-3977
DA	-3978
▁maintain	-3979
ologist	-3980
▁task	-3981
▁188	-3982
oma	-3983
▁northern	-3984
berg	-3985
▁Virgin	-3986
▁Ser	-3987
▁metal	-3988
▁egg	-3989
▁details	-3990
▁dram	-3991
▁factor	-3992
▁Second	-3993
▁infection	-3994
▁served	-3995
▁machine	-3996
ords	-3997
▁attract	-3998
▁Day	-3999
▁alternative	-4000
▁highest	-4001
▁Smith	-4002
▁Catholic	-4003
▁letter	-4004
▁east	-4005
▁Che	-4006
▁favor	-4007
▁Island	-4008
▁gir	-4009
▁pi	-4010
▁circum	-4011
▁Profess	-4012
▁cold	-4013
▁mere	-4014
▁Mexico	-4015
win	-4016
▁square	-4017
CR	-4018
▁Gra	-4019
▁Such	-4020
cular	-4021
▁conducted	-4022
itness	-4023
▁accur	-4024
▁widely	-4025
▁28	-4026
▁board	-4027
▁>	-4028
▁track	-4029
▁race	-4030
▁grant	-4031
▁Jud	-4032
▁aspects	-4033
▁male	-4034
4)	-4035
cles	-4036
▁Work	-4037
▁vo	-4038
orage	-4039
▁bottom	-4040
▁killed	-4041
arge	-4042
▁choice	-4043
▁policies	-4044
▁2006	-4045
▁Once	-4046
▁reached	-4047
▁recommend	-4048
▁Arab	-4049
▁increases	-4050
fort	-4051
▁glass	-4052
ception	-4053
▁freedom	-4054
▁lived	-4055
▁famous	-4056
▁Don	-4057
▁degrees	-4058
▁pet	-4059
▁characteristics	-4060
▁reprodu	-4061
▁intellig	-4062
uted	-4063
▁Post	-4064
▁covered	-4065
▁iron	-4066
▁Bel	-4067
part	-4068
▁Children	-4069
uit	-4070
essel	-4071
▁wond	-4072
▁Further	-4073
▁assessment	-4074
▁giving	-4075
▁drugs	-4076
▁enem	-4077
▁Today	-4078
▁Fre	-4079
▁celeb	-4080
▁HIV	-4081
▁Jer	-4082
othes	-4083
rog	-4084
▁Texas	-4085
1)	-4086
▁teach	-4087
ped	-4088
astern	-4089
eces	-4090
▁spring	-4091
ifically	-4092
▁mob	-4093
rative	-4094
▁numerous	-4095
▁box	-4096
▁Its	-4097
▁foods	-4098
zz	-4099
▁strength	-4100
▁strategies	-4101
▁reb	-4102
▁flood	-4103
▁notes	-4104
▁strugg	-4105
▁Spanish	-4106
4).	-4107
5).	-4108
▁ship	-4109
▁situ	-4110
▁Information	-4111
▁tou	-4112
bert	-4113
▁Net	-4114
▁tox	-4115
▁thick	-4116
gn	-4117
west	-4118
▁Medic	-4119
▁stars	-4120
▁White	-4121
▁coal	-4122
▁conclud	-4123
▁Mac	-4124
nic	-4125
▁blue	-4126
▁swe	-4127
▁classes	-4128
▁Charles	-4129
▁phenomen	-4130
▁behavi	-4131
▁cand	-4132
ube	-4133
mark	-4134
▁didn	-4135
▁27	-4136
▁Atl	-4137
oyal	-4138
▁operation	-4139
ingly	-4140
3).	-4141
▁sand	-4142
RO	-4143
AM	-4144
iful	-4145
raction	-4146
▁agg	-4147
▁elim	-4148
▁pric	-4149
▁efficient	-4150
▁perspect	-4151
▁Energy	-4152
cont	-4153
▁sexual	-4154
▁digital	-4155
▁Sov	-4156
▁learned	-4157
▁Div	-4158
▁college	-4159
igen	-4160
▁wrong	-4161
▁army	-4162
CC	-4163
ager	-4164
▁extent	-4165
ferences	-4166
▁authors	-4167
▁counter	-4168
▁released	-4169
▁annual	-4170
▁immediately	-4171
▁substant	-4172
▁chief	-4173
▁helps	-4174
▁articles	-4175
ulum	-4176
edic	-4177
▁Civil	-4178
iring	-4179
▁vision	-4180
▁stories	-4181
well	-4182
▁waters	-4183
▁doctor	-4184
▁offers	-4185
ras	-4186
▁sufficient	-4187
▁resistance	-4188
▁novel	-4189
ault	-4190
▁physic	-4191
▁god	-4192
▁Mart	-4193
▁Imp	-4194
▁pages	-4195
▁cro	-4196
ees	-4197
▁extremely	-4198
rm	-4199
▁Mark	-4200
▁apply	-4201
▁reform	-4202
▁manner	-4203
▁stim	-4204
▁Bas	-4205
▁income	-4206
▁joint	-4207
▁conservation	-4208
▁Academy	-4209
▁opportunities	-4210
▁round	-4211
▁datab	-4212
5)	-4213
▁Pacific	-4214
itis	-4215
▁technical	-4216
▁trend	-4217
▁Mal	-4218
▁bank	-4219
▁Tur	-4220
ias	-4221
▁Both	-4222
PS	-4223
▁Bay	-4224
▁fif	-4225
▁performed	-4226
▁80	-4227
▁reality	-4228
▁internal	-4229
▁Direct	-4230
nel	-4231
▁Mass	-4232
▁isol	-4233
▁fresh	-4234
aste	-4235
▁Inf	-4236
atically	-4237
▁Av	-4238
anging	-4239
▁fruit	-4240
▁supported	-4241
▁News	-4242
▁classroom	-4243
▁running	-4244
-9	-4245
▁bodies	-4246
▁speech	-4247
▁temperatures	-4248
▁Nav	-4249
▁background	-4250
▁Figure	-4251
▁Labor	-4252
▁Asia	-4253
▁station	-4254
▁largely	-4255
▁innov	-4256
ributed	-4257
▁breast	-4258
▁vary	-4259
iveness	-4260
▁occurred	-4261
Wh	-4262
ams	-4263
cript	-4264
▁output	-4265
▁Central	-4266
▁Jose	-4267
▁conflict	-4268
▁violence	-4269
▁Histor	-4270
▁island	-4271
▁advanced	-4272
▁du	-4273
▁huge	-4274
▁incorpor	-4275
▁THE	-4276
▁Test	-4277
ensus	-4278
▁friend	-4279
▁appoint	-4280
fered	-4281
▁vessel	-4282
ounced	-4283
▁Dist	-4284
ircraft	-4285
ishes	-4286
▁fine	-4287
▁frequently	-4288
riage	-4289
▁significantly	-4290
▁goals	-4291
:2	-4292
wood	-4293
orb	-4294
▁Sou	-4295
▁release	-4296
▁core	-4297
▁sample	-4298
ux	-4299
▁Library	-4300
▁western	-4301
▁professor	-4302
▁resulting	-4303
field	-4304
▁appeared	-4305
▁removed	-4306
gl	-4307
▁layer	-4308
▁engineering	-4309
osystem	-4310
▁formation	-4311
▁rail	-4312
cohol	-4313
▁Organ	-4314
▁revolution	-4315
▁quar	-4316
▁clinical	-4317
▁referred	-4318
▁belong	-4319
ygen	-4320
▁instruction	-4321
olid	-4322
▁Met	-4323
▁Muslim	-4324
▁coord	-4325
▁genes	-4326
▁AN	-4327
rence	-4328
▁kept	-4329
RE	-4330
▁nations	-4331
▁Def	-4332
ios	-4333
▁sort	-4334
▁Conf	-4335
key	-4336
▁prepar	-4337
▁advantage	-4338
▁expression	-4339
ellect	-4340
▁Technology	-4341
▁items	-4342
ria	-4343
ael	-4344
▁subsequ	-4345
▁combination	-4346
apes	-4347
▁187	-4348
▁Latin	-4349
▁obvious	-4350
ype	-4351
▁vit	-4352
▁therapy	-4353
rane	-4354
▁motion	-4355
▁decided	-4356
▁consumption	-4357
▁Econom	-4358
▁underst	-4359
▁comprehens	-4360
ij	-4361
▁Old	-4362
▁Stand	-4363
za	-4364
▁completed	-4365
ilit	-4366
▁185	-4367
▁failure	-4368
▁convers	-4369
▁previously	-4370
ville	-4371
▁spent	-4372
▁nan	-4373
▁unf	-4374
▁Sal	-4375
▁conver	-4376
▁biological	-4377
▁gal	-4378
▁intended	-4379
▁partners	-4380
▁signal	-4381
olars	-4382
▁dynam	-4383
ocal	-4384
▁sav	-4385
▁Britain	-4386
2).	-4387
▁phase	-4388
ague	-4389
pal	-4390
ado	-4391
isation	-4392
▁gain	-4393
▁invent	-4394
▁latter	-4395
▁decisions	-4396
etry	-4397
▁describe	-4398
ien	-4399
▁Federal	-4400
▁purposes	-4401
▁technique	-4402
▁win	-4403
▁Every	-4404
▁brief	-4405
nam	-4406
oking	-4407
▁1990	-4408
▁universe	-4409
▁Office	-4410
▁Cop	-4411
▁chance	-4412
▁inh	-4413
▁chapter	-4414
▁comment	-4415
aj	-4416
▁household	-4417
roph	-4418
▁primarily	-4419
eties	-4420
1).	-4421
istan	-4422
▁Pub	-4423
oting	-4424
▁diss	-4425
ching	-4426
ION	-4427
▁load	-4428
▁offered	-4429
▁explan	-4430
▁particles	-4431
▁Environmental	-4432
aughter	-4433
li	-4434
rum	-4435
▁Budd	-4436
▁pal	-4437
▁weap	-4438
▁prefer	-4439
▁challenge	-4440
▁moral	-4441
▁finally	-4442
▁cra	-4443
rates	-4444
▁fundamental	-4445
oo	-4446
htm	-4447
pping	-4448
▁prepared	-4449
rian	-4450
▁statement	-4451
▁wealth	-4452
▁changing	-4453
▁choose	-4454
▁brother	-4455
▁wife	-4456
▁adapt	-4457
onic	-4458
▁compl	-4459
lig	-4460
▁pil	-4461
cope	-4462
urning	-4463
▁wanted	-4464
▁nav	-4465
▁Life	-4466
▁helped	-4467
▁mentioned	-4468
▁Flor	-4469
▁interests	-4470
▁insect	-4471
ania	-4472
▁involve	-4473
ressive	-4474
▁tim	-4475
▁storm	-4476
▁Book	-4477
erate	-4478
▁Like	-4479
▁Lake	-4480
ructure	-4481
▁frequency	-4482
▁Ben	-4483
▁volunt	-4484
gra	-4485
▁instrument	-4486
▁Wil	-4487
▁Louis	-4488
▁tissue	-4489
icy	-4490
▁cycle	-4491
▁secret	-4492
▁Elect	-4493
osite	-4494
▁input	-4495
▁fort	-4496
unction	-4497
▁mort	-4498
▁charge	-4499
▁meant	-4500
▁returned	-4501
▁suggested	-4502
▁Henry	-4503
▁dimens	-4504
▁officials	-4505
7).	-4506
▁storage	-4507
▁About	-4508
▁emerg	-4509
▁subjects	-4510
▁mal	-4511
▁mostly	-4512
▁Mont	-4513
▁treated	-4514
▁practical	-4515
eding	-4516
▁distingu	-4517
▁domestic	-4518
▁(3	-4519
▁concepts	-4520
SA	-4521
▁contem	-4522
▁assemb	-4523
plications	-4524
▁Yet	-4525
▁transform	-4526
▁steps	-4527
▁forced	-4528
▁Soviet	-4529
▁synt	-4530
▁weak	-4531
▁Company	-4532
▁principle	-4533
▁satell	-4534
▁Pri	-4535
▁pun	-4536
▁trou	-4537
ss	-4538
otes	-4539
▁6.	-4540
ixt	-4541
▁km	-4542
▁gun	-4543
▁experiences	-4544
des	-4545
▁warming	-4546
ishing	-4547
▁combined	-4548
▁connection	-4549
▁raised	-4550
uration	-4551
eters	-4552
▁pick	-4553
▁portion	-4554
▁bacteria	-4555
▁Franc	-4556
▁Committee	-4557
▁setting	-4558
▁balance	-4559
▁interested	-4560
▁agricultural	-4561
▁wear	-4562
▁obtained	-4563
▁(198	-4564
▁watch	-4565
▁regional	-4566
▁die	-4567
▁Pers	-4568
ya	-4569
▁cast	-4570
▁multi	-4571
▁drive	-4572
▁Using	-4573
▁everyone	-4574
▁centuries	-4575
▁manufacture	-4576
▁Virginia	-4577
▁police	-4578
▁prison	-4579
▁languages	-4580
itors	-4581
olute	-4582
▁scen	-4583
▁becoming	-4584
▁90	-4585
▁Ste	-4586
▁chann	-4587
▁<	-4588
▁foss	-4589
▁finding	-4590
▁detailed	-4591
▁improved	-4592
ball	-4593
▁electricity	-4594
gment	-4595
osm	-4596
EM	-4597
utive	-4598
tion	-4599
▁Medical	-4600
9).	-4601
crib	-4602
▁measured	-4603
ossible	-4604
▁Class	-4605
▁definition	-4606
▁Ir	-4607
▁cris	-4608
▁replace	-4609
akers	-4610
▁message	-4611
▁facilities	-4612
▁doll	-4613
▁35	-4614
AP	-4615
hetic	-4616
▁bill	-4617
▁Carol	-4618
point	-4619
osen	-4620
6).	-4621
▁regarding	-4622
▁guide	-4623
▁mel	-4624
▁hair	-4625
▁Mem	-4626
▁70	-4627
ship	-4628
▁Psych	-4629
▁greatest	-4630
omin	-4631
▁Nor	-4632
▁confirm	-4633
▁Sum	-4634
ocratic	-4635
▁tour	-4636
▁UK	-4637
▁29	-4638
-7	-4639
EL	-4640
vis	-4641
ifying	-4642
▁exactly	-4643
▁indicate	-4644
what	-4645
▁agencies	-4646
lick	-4647
riculum	-4648
burg	-4649
▁recognized	-4650
▁victim	-4651
▁mo	-4652
▁connected	-4653
▁fert	-4654
add	-4655
▁wet	-4656
▁#	-4657
.;	-4658
kin	-4659
▁Alex	-4660
▁vast	-4661
▁convent	-4662
▁exposed	-4663
▁hop	-4664
▁lic	-4665
▁master	-4666
▁aircraft	-4667
▁syn	-4668
ules	-4669
▁Note	-4670
rome	-4671
▁views	-4672
▁relationships	-4673
▁signs	-4674
OS	-4675
▁disapp	-4676
ota	-4677
▁hour	-4678
▁collected	-4679
▁played	-4680
▁saying	-4681
▁immig	-4682
▁diam	-4683
▁heard	-4684
eal	-4685
▁AD	-4686
▁bud	-4687
▁sed	-4688
▁191	-4689
▁aid	-4690
▁remember	-4691
▁stone	-4692
▁height	-4693
▁Sl	-4694
8).	-4695
▁dut	-4696
▁shar	-4697
▁certainly	-4698
▁homes	-4699
▁wave	-4700
▁detect	-4701
▁bed	-4702
▁column	-4703
▁organic	-4704
▁cere	-4705
▁studied	-4706
▁reduction	-4707
▁Hel	-4708
▁pieces	-4709
▁external	-4710
ework	-4711
▁Constitution	-4712
▁Therefore	-4713
▁challenges	-4714
▁Sea	-4715
▁Hy	-4716
inet	-4717
▁library	-4718
▁2013	-4719
▁prices	-4720
▁efficiency	-4721
▁liquid	-4722
▁Russian	-4723
▁Camb	-4724
▁Ap	-4725
▁bone	-4726
▁oxygen	-4727
rete	-4728
ategy	-4729
▁director	-4730
▁excess	-4731
▁Studies	-4732
▁Report	-4733
ura	-4734
▁troops	-4735
▁mouth	-4736
▁184	-4737
bi	-4738
AD	-4739
▁batter	-4740
].	-4741
▁adjust	-4742
6)	-4743
▁claims	-4744
▁Di	-4745
rows	-4746
▁save	-4747
▁concerns	-4748
▁excell	-4749
▁isn	-4750
which	-4751
▁argument	-4752
▁strategy	-4753
▁cogn	-4754
▁Ann	-4755
works	-4756
▁Que	-4757
▁accepted	-4758
▁continues	-4759
▁burn	-4760
▁satis	-4761
▁Br	-4762
▁Review	-4763
RI	-4764
ollow	-4765
standing	-4766
▁Rem	-4767
ses	-4768
▁indeed	-4769
cers	-4770
▁intellect	-4771
▁Mo	-4772
▁Middle	-4773
▁accompl	-4774
▁tum	-4775
22	-4776
▁stated	-4777
cycl	-4778
▁Ox	-4779
▁Food	-4780
▁Professor	-4781
▁recorded	-4782
▁Op	-4783
▁follows	-4784
▁Foundation	-4785
▁operating	-4786
▁Bro	-4787
▁Dan	-4788
▁perman	-4789
▁processing	-4790
hi	-4791
▁bright	-4792
▁Up	-4793
▁starting	-4794
▁felt	-4795
▁Engine	-4796
▁rough	-4797
▁possess	-4798
▁relevant	-4799
▁philosophy	-4800
▁Nature	-4801
▁divided	-4802
rich	-4803
rust	-4804
▁component	-4805
▁kil	-4806
▁critic	-4807
7)	-4808
▁leader	-4809
▁recon	-4810
▁anyone	-4811
▁ecosystem	-4812
band	-4813
with	-4814
▁interview	-4815
▁otherwise	-4816
▁subm	-4817
▁explore	-4818
▁Disc	-4819
▁adopted	-4820
▁Joseph	-4821
▁park	-4822
ctor	-4823
▁Rad	-4824
▁thin	-4825
▁store	-4826
▁happen	-4827
▁pip	-4828
▁Columb	-4829
90	-4830
▁funding	-4831
▁Women	-4832
▁taught	-4833
▁rapidly	-4834
bal	-4835
▁flight	-4836
▁discover	-4837
▁hear	-4838
▁selected	-4839
liam	-4840
▁experiments	-4841
war	-4842
board	-4843
▁2005	-4844
▁grand	-4845
iled	-4846
▁double	-4847
▁advance	-4848
▁sides	-4849
▁ax	-4850
▁insp	-4851
▁medicine	-4852
name	-4853
gery	-4854
throp	-4855
▁Som	-4856
▁grav	-4857
▁discovery	-4858
▁band	-4859
▁Ter	-4860
▁spiritual	-4861
▁clos	-4862
▁documents	-4863
▁pret	-4864
icial	-4865
▁Well	-4866
icon	-4867
▁Emp	-4868
level	-4869
▁clim	-4870
▁pregn	-4871
▁Out	-4872
▁emp	-4873
abetes	-4874
▁increasingly	-4875
▁narrow	-4876
▁baby	-4877
▁ST	-4878
▁Kore	-4879
lease	-4880
▁breat	-4881
▁concerned	-4882
▁discussed	-4883
▁constitution	-4884
ctic	-4885
osal	-4886
anged	-4887
clusion	-4888
▁farmers	-4889
▁3,	-4890
▁IN	-4891
▁seed	-4892
”.	-4893
▁Ill	-4894
▁kinds	-4895
▁Bur	-4896
▁alg	-4897
▁request	-4898
rier	-4899
▁title	-4900
▁neut	-4901
▁links	-4902
▁fle	-4903
▁flat	-4904
▁reaction	-4905
▁participants	-4906
▁milk	-4907
celer	-4908
▁responsibility	-4909
▁dial	-4910
ns	-4911
▁Wind	-4912
▁Dar	-4913
▁entirely	-4914
▁extensive	-4915
oxide	-4916
eria	-4917
ortunately	-4918
▁Group	-4919
▁rural	-4920
iling	-4921
▁eating	-4922
▁containing	-4923
▁Ham	-4924
col	-4925
tes	-4926
▁closely	-4927
▁samples	-4928
▁Bible	-4929
▁expert	-4930
▁governments	-4931
ston	-4932
▁showing	-4933
US	-4934
▁Chic	-4935
▁Tem	-4936
icit	-4937
▁typical	-4938
▁ready	-4939
▁slightly	-4940
▁Medicine	-4941
▁knew	-4942
▁grass	-4943
▁district	-4944
▁administration	-4945
▁motor	-4946
▁Southern	-4947
▁upd	-4948
alian	-4949
▁Peter	-4950
▁alcohol	-4951
▁symbol	-4952
▁Sciences	-4953
isp	-4954
▁figures	-4955
ato	-4956
▁encourage	-4957
▁frag	-4958
▁promote	-4959
▁Any	-4960
resents	-4961
▁scholars	-4962
▁sector	-4963
▁maximum	-4964
▁surpris	-4965
▁Supp	-4966
▁Bet	-4967
liament	-4968
▁Through	-4969
35	-4970
▁jour	-4971
▁BC	-4972
8)	-4973
▁song	-4974
▁please	-4975
▁spl	-4976
ample	-4977
▁roll	-4978
▁selection	-4979
iform	-4980
atric	-4981
▁Only	-4982
▁twenty	-4983
ears	-4984
ocol	-4985
▁Prov	-4986
▁elev	-4987
▁opened	-4988
▁astronom	-4989
▁opinion	-4990
▁buy	-4991
▁begins	-4992
uable	-4993
▁Richard	-4994
inating	-4995
▁reject	-4996
▁letters	-4997
rolog	-4998
inger	-4999
▁illness	-5000
▁mainly	-5001
45	-5002
reed	-5003
▁Del	-5004
stract	-5005
OT	-5006
ki	-5007
▁perspective	-5008
32	-5009
oned	-5010
▁Land	-5011
▁mist	-5012
▁precise	-5013
▁fit	-5014
▁controlled	-5015
▁thousand	-5016
stein	-5017
▁neighbor	-5018
▁description	-5019
▁connect	-5020
▁disorder	-5021
▁familiar	-5022
▁haz	-5023
▁pul	-5024
▁trust	-5025
▁valid	-5026
asure	-5027
▁tried	-5028
▁7.	-5029
▁paint	-5030
▁impl	-5031
9)	-5032
▁allowing	-5033
urance	-5034
▁antib	-5035
▁expressed	-5036
atever	-5037
▁amounts	-5038
▁circumst	-5039
▁formal	-5040
going	-5041
▁OF	-5042
▁fell	-5043
▁Florida	-5044
▁floor	-5045
ipped	-5046
▁habitat	-5047
▁represents	-5048
▁CD	-5049
▁spot	-5050
▁sen	-5051
agues	-5052
▁Russia	-5053
▁despite	-5054
▁Leg	-5055
▁impossible	-5056
▁owners	-5057
anges	-5058
▁util	-5059
▁Where	-5060
▁reducing	-5061
unk	-5062
▁Fam	-5063
▁renew	-5064
▁hundreds	-5065
▁kill	-5066
▁recommended	-5067
▁snow	-5068
▁electrical	-5069
ulating	-5070
▁Natural	-5071
▁originally	-5072
▁Data	-5073
▁pure	-5074
▁looks	-5075
▁explained	-5076
▁Wild	-5077
▁pollution	-5078
▁experienced	-5079
ava	-5080
▁walls	-5081
▁effectively	-5082
verty	-5083
cest	-5084
fall	-5085
▁depos	-5086
BC	-5087
▁bond	-5088
▁ideal	-5089
itage	-5090
▁involves	-5091
▁games	-5092
▁vehicle	-5093
▁firm	-5094
▁poverty	-5095
▁Expl	-5096
▁objective	-5097
idelines	-5098
▁Canadian	-5099
rants	-5100
500	-5101
▁linked	-5102
▁yellow	-5103
▁surrounding	-5104
▁trial	-5105
▁Rights	-5106
▁observations	-5107
▁stock	-5108
▁grade	-5109
▁represented	-5110
▁consists	-5111
▁understood	-5112
▁Brown	-5113
fl	-5114
▁doubt	-5115
ded	-5116
ansion	-5117
▁Frank	-5118
▁hospital	-5119
▁1980	-5120
▁visible	-5121
▁straight	-5122
75	-5123
▁Kh	-5124
iated	-5125
▁massive	-5126
ormal	-5127
▁beautiful	-5128
.|	-5129
Americ	-5130
rine	-5131
▁onto	-5132
▁Mill	-5133
▁options	-5134
▁topic	-5135
▁gar	-5136
▁paralle	-5137
state	-5138
▁absolute	-5139
▁magnetic	-5140
olf	-5141
lers	-5142
▁remove	-5143
alog	-5144
▁approaches	-5145
▁Id	-5146
▁www	-5147
▁Street	-5148
▁equival	-5149
ini	-5150
▁moon	-5151
▁career	-5152
▁Long	-5153
▁failed	-5154
▁gall	-5155
▁looked	-5156
▁pray	-5157
▁capable	-5158
▁organized	-5159
▁Phot	-5160
▁identity	-5161
▁shared	-5162
▁parties	-5163
IG	-5164
▁consult	-5165
▁goods	-5166
▁institution	-5167
▁toxic	-5168
▁Treat	-5169
ails	-5170
▁seek	-5171
▁Times	-5172
▁youth	-5173
▁Those	-5174
ropical	-5175
▁Stat	-5176
▁therm	-5177
med	-5178
lements	-5179
▁param	-5180
▁Gal	-5181
inction	-5182
▁plat	-5183
imental	-5184
▁easier	-5185
zing	-5186
cyclop	-5187
▁plastic	-5188
▁Oh	-5189
ML	-5190
eenth	-5191
ING	-5192
▁specifically	-5193
▁Gold	-5194
▁periods	-5195
▁soldiers	-5196
▁describes	-5197
DF	-5198
▁sin	-5199
▁remark	-5200
▁database	-5201
▁disorders	-5202
▁consequences	-5203
▁advoc	-5204
pre	-5205
▁facts	-5206
mes	-5207
▁suc	-5208
▁galax	-5209
▁physics	-5210
▁conscious	-5211
▁Haw	-5212
ona	-5213
reci	-5214
▁III	-5215
▁Common	-5216
▁paid	-5217
▁inches	-5218
▁authorities	-5219
▁subs	-5220
▁discipl	-5221
▁possibility	-5222
itudes	-5223
▁houses	-5224
▁garden	-5225
▁index	-5226
alse	-5227
33	-5228
▁era	-5229
▁derived	-5230
▁leads	-5231
▁root	-5232
▁Despite	-5233
▁experts	-5234
▁Step	-5235
▁sequence	-5236
▁morning	-5237
▁vul	-5238
▁stem	-5239
▁Michael	-5240
▁calls	-5241
▁causing	-5242
▁candid	-5243
▁Cy	-5244
▁san	-5245
▁Among	-5246
▁laboratory	-5247
▁arms	-5248
”,	-5249
▁angle	-5250
▁sugar	-5251
▁Paris	-5252
▁32	-5253
▁install	-5254
▁newsp	-5255
▁accurate	-5256
▁solutions	-5257
▁imper	-5258
anguage	-5259
▁vent	-5260
▁Instead	-5261
ey	-5262
▁gets	-5263
▁sets	-5264
inity	-5265
iced	-5266
umes	-5267
▁Party	-5268
▁procedure	-5269
▁focused	-5270
umber	-5271
rovers	-5272
▁Chicago	-5273
▁schem	-5274
▁credit	-5275
▁adequ	-5276
ocracy	-5277
▁nit	-5278
TS	-5279
▁Penn	-5280
inn	-5281
▁decline	-5282
▁Camp	-5283
▁impacts	-5284
▁extended	-5285
▁secondary	-5286
▁appearance	-5287
IL	-5288
ping	-5289
▁Board	-5290
▁Mad	-5291
▁aqu	-5292
ureau	-5293
▁Early	-5294
▁profession	-5295
abil	-5296
▁jobs	-5297
▁Administ	-5298
▁refers	-5299
teen	-5300
▁Nations	-5301
▁Spec	-5302
▁wonder	-5303
▁corpor	-5304
uous	-5305
body	-5306
▁Ocean	-5307
▁enemy	-5308
▁mix	-5309
MS	-5310
▁commit	-5311
enses	-5312
▁sky	-5313
chers	-5314
asks	-5315
erved	-5316
▁edge	-5317
▁amb	-5318
▁lit	-5319
ding	-5320
▁rein	-5321
ffect	-5322
▁mamm	-5323
urd	-5324
▁marriage	-5325
▁remaining	-5326
▁Fort	-5327
RC	-5328
▁concentration	-5329
▁Design	-5330
▁Revolution	-5331
▁Study	-5332
▁nutri	-5333
▁flex	-5334
▁resist	-5335
▁Mag	-5336
▁marked	-5337
uses	-5338
cience	-5339
▁dangerous	-5340
umin	-5341
▁eastern	-5342
aks	-5343
▁curriculum	-5344
▁monitoring	-5345
▁bird	-5346
place	-5347
▁Global	-5348
cules	-5349
▁immune	-5350
omp	-5351
▁debate	-5352
hist	-5353
▁comprehensive	-5354
▁introduction	-5355
▁Pan	-5356
▁1970	-5357
▁trig	-5358
▁explains	-5359
▁Learning	-5360
▁Management	-5361
active	-5362
aria	-5363
▁repeated	-5364
▁assistance	-5365
▁marine	-5366
faces	-5367
cription	-5368
▁exchange	-5369
▁motiv	-5370
5%	-5371
▁Cult	-5372
▁sustainable	-5373
▁happened	-5374
▁destroyed	-5375
▁crisis	-5376
24	-5377
heric	-5378
▁Vis	-5379
inding	-5380
▁wid	-5381
▁Rome	-5382
▁voice	-5383
▁leadership	-5384
▁tested	-5385
▁unlike	-5386
▁leaving	-5387
azine	-5388
▁PM	-5389
▁closed	-5390
stream	-5391
ena	-5392
EP	-5393
▁resolution	-5394
▁rand	-5395
omy	-5396
▁medium	-5397
▁forests	-5398
▁justice	-5399
▁math	-5400
▁chemicals	-5401
ifies	-5402
▁county	-5403
▁mountain	-5404
ka	-5405
kins	-5406
rating	-5407
▁computers	-5408
ada	-5409
▁generated	-5410
uilding	-5411
▁ethnic	-5412
▁density	-5413
ala	-5414
▁||	-5415
▁museum	-5416
▁achieved	-5417
▁2004	-5418
▁powers	-5419
▁founded	-5420
▁millions	-5421
ny	-5422
ta	-5423
▁agriculture	-5424
▁hit	-5425
▁prem	-5426
orter	-5427
▁random	-5428
ceived	-5429
▁domin	-5430
iders	-5431
ndrome	-5432
▁Forest	-5433
▁relation	-5434
acters	-5435
▁muscle	-5436
▁shell	-5437
▁4,	-5438
ican	-5439
▁USA	-5440
▁Hall	-5441
▁minimum	-5442
aph	-5443
▁electronic	-5444
CO	-5445
▁attacks	-5446
▁possibly	-5447
▁Finally	-5448
▁ancest	-5449
ua	-5450
▁agreement	-5451
▁waves	-5452
▁Volume	-5453
▁obtain	-5454
▁greatly	-5455
38	-5456
▁click	-5457
▁apart	-5458
36	-5459
▁Control	-5460
▁acceler	-5461
▁Indians	-5462
▁photograph	-5463
▁budget	-5464
▁pictures	-5465
▁crops	-5466
▁procedures	-5467
ita	-5468
▁Power	-5469
▁Australian	-5470
▁Exp	-5471
▁properly	-5472
ulty	-5473
▁Bank	-5474
▁replaced	-5475
craft	-5476
▁forth	-5477
▁agency	-5478
▁clust	-5479
▁Sol	-5480
▁unless	-5481
▁mechanism	-5482
▁producing	-5483
▁Det	-5484
igenous	-5485
▁contained	-5486
gal	-5487
▁Dise	-5488
itative	-5489
▁Northern	-5490
▁promin	-5491
▁format	-5492
▁fluid	-5493
▁depending	-5494
la	-5495
ags	-5496
▁dedic	-5497
▁abund	-5498
▁implementation	-5499
▁Exper	-5500
pass	-5501
prise	-5502
▁Italy	-5503
▁contribute	-5504
100	-5505
▁depends	-5506
▁Lu	-5507
▁Tor	-5508
▁movements	-5509
▁occasion	-5510
▁500	-5511
anta	-5512
indu	-5513
▁Before	-5514
tle	-5515
hips	-5516
▁happens	-5517
▁opening	-5518
▁Chem	-5519
▁horiz	-5520
▁yield	-5521
▁kn	-5522
▁conventional	-5523
itan	-5524
othing	-5525
▁investment	-5526
tic	-5527
▁Good	-5528
▁Secret	-5529
▁unknown	-5530
▁legisl	-5531
irty	-5532
rors	-5533
▁proteins	-5534
▁restrict	-5535
▁officers	-5536
▁Carolina	-5537
rastructure	-5538
cher	-5539
▁fixed	-5540
▁risks	-5541
▁Const	-5542
▁girls	-5543
▁send	-5544
luding	-5545
26	-5546
iot	-5547
▁residents	-5548
▁tun	-5549
▁(20	-5550
▁colleagues	-5551
car	-5552
▁nutrition	-5553
▁Spain	-5554
▁excellent	-5555
comes	-5556
▁Vict	-5557
▁acts	-5558
edu	-5559
▁grown	-5560
▁expensive	-5561
heast	-5562
▁faster	-5563
▁chronic	-5564
▁Royal	-5565
agon	-5566
▁limits	-5567
-18	-5568
▁village	-5569
▁estimates	-5570
▁theore	-5571
▁traffic	-5572
igation	-5573
▁courses	-5574
▁wire	-5575
▁diversity	-5576
▁facilit	-5577
▁Sever	-5578
▁hearing	-5579
aturally	-5580
emic	-5581
▁Wood	-5582
▁Cap	-5583
▁aer	-5584
▁·	-5585
▁awareness	-5586
rus	-5587
▁Know	-5588
▁circumstances	-5589
▁university	-5590
organ	-5591
▁exists	-5592
ario	-5593
▁edition	-5594
▁employed	-5595
▁hypothes	-5596
sey	-5597
▁Last	-5598
▁laun	-5599
▁lung	-5600
▁electron	-5601
no	-5602
ibilities	-5603
▁opposite	-5604
▁witness	-5605
stone	-5606
▁hunt	-5607
▁Four	-5608
▁succeed	-5609
▁files	-5610
▁salt	-5611
▁nine	-5612
▁depth	-5613
▁notice	-5614
▁issued	-5615
▁Lab	-5616
▁characters	-5617
▁transition	-5618
▁Climate	-5619
idden	-5620
▁topics	-5621
▁Pop	-5622
▁horse	-5623
▁mathematics	-5624
icians	-5625
▁merely	-5626
▁injury	-5627
?"	-5628
▁plate	-5629
▁intellectual	-5630
zen	-5631
▁train	-5632
▁valuable	-5633
▁framework	-5634
obe	-5635
▁ships	-5636
▁revealed	-5637
▁neither	-5638
▁Du	-5639
▁recognize	-5640
▁Agricult	-5641
▁considerable	-5642
▁300	-5643
▁composition	-5644
▁arrived	-5645
icks	-5646
▁sounds	-5647
▁Color	-5648
▁lik	-5649
▁instruments	-5650
▁vehicles	-5651
▁depart	-5652
▁Form	-5653
▁45	-5654
lv	-5655
aud	-5656
iate	-5657
rary	-5658
▁Though	-5659
28	-5660
zy	-5661
▁arrange	-5662
▁somewhat	-5663
born	-5664
ancing	-5665
▁diabetes	-5666
▁od	-5667
▁Lib	-5668
▁defe	-5669
▁Fe	-5670
elled	-5671
▁molecules	-5672
▁listed	-5673
▁legislation	-5674
▁division	-5675
▁Whe	-5676
▁maps	-5677
▁joined	-5678
▁necessarily	-5679
▁Table	-5680
▁Empire	-5681
▁substance	-5682
▁2003	-5683
OL	-5684
▁launch	-5685
▁controvers	-5686
CT	-5687
▁committee	-5688
▁Att	-5689
zil	-5690
▁aw	-5691
▁36	-5692
▁latest	-5693
anda	-5694
▁Eth	-5695
▁yourself	-5696
ints	-5697
▁bow	-5698
▁seemed	-5699
▁protected	-5700
tenance	-5701
▁Valley	-5702
down	-5703
▁outl	-5704
▁Three	-5705
eline	-5706
▁sud	-5707
IDS	-5708
▁cryst	-5709
bed	-5710
rep	-5711
orrow	-5712
under	-5713
▁politics	-5714
rans	-5715
▁meat	-5716
gu	-5717
ih	-5718
hered	-5719
▁publication	-5720
long	-5721
▁equivalent	-5722
▁gender	-5723
▁principal	-5724
exp	-5725
▁ages	-5726
encing	-5727
oral	-5728
▁Jeff	-5729
▁error	-5730
▁appreci	-5731
▁tal	-5732
▁drop	-5733
▁flowers	-5734
▁dust	-5735
▁daughter	-5736
▁expansion	-5737
▁cultiv	-5738
▁2001	-5739
▁Georg	-5740
▁consistent	-5741
omic	-5742
▁Oxford	-5743
▁Mer	-5744
▁lesson	-5745
▁fly	-5746
▁stret	-5747
▁comparison	-5748
hop	-5749
▁feeling	-5750
▁intelligence	-5751
▁Bre	-5752
34	-5753
▁vulner	-5754
▁positions	-5755
▁situations	-5756
▁Division	-5757
▁Eastern	-5758
▁acknow	-5759
lar	-5760
▁colors	-5761
ait	-5762
▁parallel	-5763
▁simpl	-5764
▁theories	-5765
▁Scott	-5766
▁extract	-5767
osion	-5768
▁concer	-5769
▁drawn	-5770
eer	-5771
▁Micro	-5772
▁End	-5773
edy	-5774
▁eggs	-5775
▁Rob	-5776
pet	-5777
▁cognitive	-5778
▁harvest	-5779
▁AS	-5780
IA	-5781
▁hem	-5782
▁surgery	-5783
▁drinking	-5784
▁Chapter	-5785
▁territory	-5786
angle	-5787
▁Main	-5788
▁email	-5789
37	-5790
▁grew	-5791
▁emergency	-5792
▁10.	-5793
▁push	-5794
▁(4	-5795
ication	-5796
▁stored	-5797
▁window	-5798
▁organisms	-5799
that	-5800
▁Home	-5801
▁discrim	-5802
▁supposed	-5803
eck	-5804
▁none	-5805
▁tow	-5806
lets	-5807
▁explanation	-5808
▁Str	-5809
utch	-5810
xts	-5811
CS	-5812
asp	-5813
plicated	-5814
▁Italian	-5815
▁resulted	-5816
▁landscape	-5817
▁married	-5818
bur	-5819
ashion	-5820
▁raise	-5821
▁normally	-5822
aur	-5823
roke	-5824
▁evaluation	-5825
▁8.	-5826
',	-5827
▁fossil	-5828
▁readers	-5829
▁pump	-5830
▁las	-5831
▁hyper	-5832
agers	-5833
▁agreed	-5834
inder	-5835
▁bio	-5836
ifications	-5837
▁entered	-5838
▁enhance	-5839
▁hus	-5840
▁vaccine	-5841
▁bear	-5842
▁generate	-5843
▁pig	-5844
▁Force	-5845
oln	-5846
▁1960	-5847
▁inner	-5848
▁sudden	-5849
▁attached	-5850
▁desire	-5851
ugh	-5852
▁immediate	-5853
operation	-5854
▁Ext	-5855
▁survival	-5856
39	-5857
alysis	-5858
▁comfort	-5859
▁estimate	-5860
▁Atlantic	-5861
▁interaction	-5862
▁potentially	-5863
▁cert	-5864
▁tail	-5865
▁transmission	-5866
▁cars	-5867
do	-5868
▁false	-5869
ester	-5870
▁permanent	-5871
▁papers	-5872
▁demonstrated	-5873
▁ratio	-5874
last	-5875
▁lect	-5876
scale	-5877
▁weapons	-5878
▁option	-5879
oples	-5880
ban	-5881
▁Holy	-5882
▁coastal	-5883
▁pu	-5884
otion	-5885
arr	-5886
▁;	-5887
▁aband	-5888
▁undert	-5889
asters	-5890
olve	-5891
▁unus	-5892
▁deliver	-5893
▁180	-5894
▁shel	-5895
▁constructed	-5896
-10	-5897
oir	-5898
▁Sat	-5899
▁dioxide	-5900
▁Cambridge	-5901
New	-5902
oston	-5903
▁proportion	-5904
▁cart	-5905
called	-5906
▁abuse	-5907
▁wel	-5908
reland	-5909
21	-5910
▁helping	-5911
▁satellite	-5912
▁gone	-5913
▁Special	-5914
▁cosm	-5915
▁Comput	-5916
▁architecture	-5917
▁1/	-5918
▁attend	-5919
▁indicates	-5920
▁Prop	-5921
▁chosen	-5922
▁filled	-5923
If	-5924
rd	-5925
bour	-5926
▁Addition	-5927
inations	-5928
▁transportation	-5929
kes	-5930
ading	-5931
▁kid	-5932
▁seeds	-5933
▁election	-5934
27	-5935
▁deaths	-5936
▁comments	-5937
.'	-5938
▁infrastructure	-5939
▁Time	-5940
▁remote	-5941
▁indicated	-5942
▁ran	-5943
isted	-5944
▁mixed	-5945
▁orbit	-5946
▁Resources	-5947
▁fab	-5948
▁supplies	-5949
▁regulations	-5950
▁broken	-5951
ooth	-5952
▁2002	-5953
gov	-5954
herent	-5955
▁department	-5956
▁tiny	-5957
▁manif	-5958
▁oblig	-5959
▁Viet	-5960
▁Ira	-5961
▁incl	-5962
▁couple	-5963
▁spend	-5964
▁sell	-5965
▁struggle	-5966
ictionary	-5967
▁("	-5968
▁measurements	-5969
▁negot	-5970
but	-5971
▁phr	-5972
isters	-5973
▁surve	-5974
▁participation	-5975
▁Free	-5976
▁vote	-5977
▁keeping	-5978
▁drawing	-5979
▁Several	-5980
▁teeth	-5981
▁Top	-5982
▁orient	-5983
▁platform	-5984
▁Clin	-5985
▁chart	-5986
▁pra	-5987
▁prove	-5988
▁bomb	-5989
▁declared	-5990
▁Ireland	-5991
▁hydrogen	-5992
▁proceed	-5993
▁composed	-5994
▁produces	-5995
▁proved	-5996
▁af	-5997
▁Martin	-5998
▁rub	-5999
▁door	-6000
29	-6001
xual	-6002
▁Please	-6003
▁Saf	-6004
iology	-6005
▁Back	-6006
▁sought	-6007
▁worldwide	-6008
▁steel	-6009
▁accounts	-6010
▁depression	-6011
▁toler	-6012
▁sections	-6013
ansas	-6014
ented	-6015
▁Agency	-6016
▁commission	-6017
▁foundation	-6018
▁prevention	-6019
▁©	-6020
uing	-6021
▁zone	-6022
orough	-6023
▁absorb	-6024
▁Cat	-6025
incoln	-6026
ificial	-6027
▁stages	-6028
▁Heb	-6029
▁camera	-6030
vironments	-6031
▁label	-6032
ola	-6033
▁gather	-6034
▁studying	-6035
▁Current	-6036
▁brown	-6037
▁objectives	-6038
▁Sup	-6039
▁successfully	-6040
▁Brazil	-6041
▁infl	-6042
▁sight	-6043
▁volcan	-6044
orous	-6045
▁sensitive	-6046
▁interpretation	-6047
▁fill	-6048
▁mechanisms	-6049
▁ultimately	-6050
▁wish	-6051
▁border	-6052
▁whatever	-6053
-20	-6054
▁ban	-6055
▁shot	-6056
▁overl	-6057
▁fib	-6058
▁AND	-6059
▁shut	-6060
▁rig	-6061
▁Bill	-6062
imer	-6063
ogue	-6064
▁accum	-6065
▁subsequent	-6066
▁crim	-6067
▁Scot	-6068
▁Bab	-6069
▁rid	-6070
▁rocks	-6071
▁Survey	-6072
▁signals	-6073
▁entry	-6074
▁managed	-6075
▁locations	-6076
▁lies	-6077
▁competition	-6078
▁alle	-6079
acts	-6080
▁31	-6081
▁sole	-6082
▁roots	-6083
▁biology	-6084
▁passage	-6085
▁greenhouse	-6086
reek	-6087
▁employment	-6088
▁intervention	-6089
▁Iran	-6090
▁substantial	-6091
▁dream	-6092
▁strongly	-6093
▁Rock	-6094
LE	-6095
▁opposed	-6096
▁Dou	-6097
▁cm	-6098
usal	-6099
pread	-6100
▁Sil	-6101
ested	-6102
▁soul	-6103
▁diverse	-6104
▁carefully	-6105
html	-6106
▁texts	-6107
▁naturally	-6108
▁destruction	-6109
theless	-6110
▁ends	-6111
▁Follow	-6112
▁emotional	-6113
▁(1)	-6114
flow	-6115
▁Hill	-6116
▁circuit	-6117
▁Grand	-6118
▁Columbia	-6119
▁Page	-6120
▁Adv	-6121
▁claimed	-6122
▁contemporary	-6123
IP	-6124
▁speaking	-6125
▁maintained	-6126
▁playing	-6127
▁rising	-6128
cyclopedia	-6129
vard	-6130
▁arrest	-6131
tra	-6132
▁designs	-6133
▁earthqu	-6134
▁concerning	-6135
▁cloud	-6136
ocation	-6137
uh	-6138
▁attempts	-6139
▁geomet	-6140
athy	-6141
▁examine	-6142
▁disturb	-6143
▁Teac	-6144
▁ju	-6145
▁Iraq	-6146
▁recognition	-6147
ye	-6148
▁(2)	-6149
▁anx	-6150
venue	-6151
▁independence	-6152
arant	-6153
▁crop	-6154
▁twice	-6155
▁association	-6156
▁uns	-6157
▁secure	-6158
▁elected	-6159
▁recy	-6160
▁Sk	-6161
fish	-6162
▁ru	-6163
ishop	-6164
▁markets	-6165
▁slowly	-6166
▁networks	-6167
awn	-6168
▁Writ	-6169
▁funds	-6170
▁Lincoln	-6171
▁frame	-6172
esis	-6173
while	-6174
▁Age	-6175
▁cong	-6176
▁announced	-6177
▁Laboratory	-6178
▁maintenance	-6179
▁mit	-6180
▁writer	-6181
idespread	-6182
▁involving	-6183
▁matters	-6184
▁uncertain	-6185
▁defense	-6186
▁shift	-6187
▁manage	-6188
▁manufacturing	-6189
such	-6190
American	-6191
acing	-6192
▁hole	-6193
▁nucle	-6194
▁rank	-6195
▁Boston	-6196
ctive	-6197
▁fighting	-6198
▁Guide	-6199
Ar	-6200
oster	-6201
▁editor	-6202
As	-6203
rey	-6204
▁Rom	-6205
antly	-6206
uels	-6207
▁housing	-6208
▁din	-6209
▁pair	-6210
▁guidelines	-6211
ployment	-6212
▁electro	-6213
▁adding	-6214
▁ordered	-6215
hand	-6216
▁Jac	-6217
lishing	-6218
▁advice	-6219
▁Non	-6220
▁tasks	-6221
osph	-6222
UR	-6223
rison	-6224
▁Cre	-6225
▁blog	-6226
▁mand	-6227
ercury	-6228
▁diagnosis	-6229
99	-6230
IR	-6231
▁scene	-6232
▁archae	-6233
▁catch	-6234
irds	-6235
▁variable	-6236
ora	-6237
care	-6238
▁Wall	-6239
▁appointed	-6240
ogle	-6241
▁silver	-6242
▁operate	-6243
▁explo	-6244
▁Palest	-6245
▁defic	-6246
▁prohib	-6247
▁Coast	-6248
▁Change	-6249
▁vessels	-6250
▁unable	-6251
ailed	-6252
▁District	-6253
avery	-6254
▁Naz	-6255
▁Similar	-6256
▁Native	-6257
aska	-6258
▁List	-6259
itter	-6260
▁capture	-6261
orph	-6262
▁Who	-6263
▁terror	-6264
▁standing	-6265
▁Care	-6266
▁Administration	-6267
▁5,	-6268
▁chrom	-6269
spec	-6270
▁vel	-6271
▁afford	-6272
iah	-6273
▁Polit	-6274
▁cultures	-6275
▁responses	-6276
▁integrated	-6277
▁Young	-6278
peror	-6279
▁plane	-6280
▁epid	-6281
▁layers	-6282
▁chain	-6283
Al	-6284
▁immun	-6285
▁award	-6286
▁suitable	-6287
▁pull	-6288
▁inject	-6289
▁fishing	-6290
▁facility	-6291
▁lose	-6292
▁closer	-6293
▁↑	-6294
▁Big	-6295
▁turb	-6296
▁hydro	-6297
▁Johnson	-6298
▁agents	-6299
etics	-6300
▁stable	-6301
▁universal	-6302
▁truly	-6303
▁difficulty	-6304
'.	-6305
▁define	-6306
▁ske	-6307
aded	-6308
▁150	-6309
▁pretty	-6310
▁Add	-6311
▁flag	-6312
▁moist	-6313
▁Kingdom	-6314
▁Sir	-6315
▁furn	-6316
▁ring	-6317
▁improvement	-6318
HO	-6319
▁Pet	-6320
zed	-6321
▁molecular	-6322
▁environments	-6323
wing	-6324
▁Mel	-6325
▁Orig	-6326
▁Victor	-6327
▁obst	-6328
▁launched	-6329
▁television	-6330
pat	-6331
▁Est	-6332
▁enable	-6333
▁arts	-6334
▁Conn	-6335
▁historic	-6336
▁Super	-6337
▁fourth	-6338
▁string	-6339
erior	-6340
▁mode	-6341
ishment	-6342
istical	-6343
▁exceed	-6344
normal	-6345
▁seeing	-6346
▁willing	-6347
▁controls	-6348
▁regul	-6349
▁regist	-6350
▁spok	-6351
▁infant	-6352
aked	-6353
▁painting	-6354
▁conference	-6355
/0	-6356
▁shapes	-6357
▁survive	-6358
eor	-6359
▁decrease	-6360
▁Van	-6361
▁circle	-6362
▁crew	-6363
▁union	-6364
▁exclus	-6365
▁micros	-6366
▁centers	-6367
▁vital	-6368
▁infections	-6369
▁delay	-6370
▁tells	-6371
▁outcomes	-6372
▁demonstrate	-6373
example	-6374
▁reader	-6375
top	-6376
▁laid	-6377
▁whereas	-6378
▁diameter	-6379
▁recovery	-6380
▁dollars	-6381
UN	-6382
▁Services	-6383
bra	-6384
▁Ohio	-6385
▁Language	-6386
▁dogs	-6387
▁widespread	-6388
iana	-6389
hav	-6390
There	-6391
▁Kar	-6392
▁horm	-6393
▁supporting	-6394
▁blow	-6395
▁suffering	-6396
isco	-6397
▁syndrome	-6398
▁opposition	-6399
uracy	-6400
bar	-6401
sylv	-6402
ighter	-6403
ibl	-6404
onn	-6405
▁shif	-6406
▁Never	-6407
▁fewer	-6408
▁contamin	-6409
▁conclusion	-6410
65	-6411
abled	-6412
▁Ven	-6413
▁roof	-6414
▁Irish	-6415
elescope	-6416
▁Nov	-6417
▁hero	-6418
▁nerv	-6419
AA	-6420
comm	-6421
▁nearby	-6422
▁stands	-6423
▁childhood	-6424
▁dim	-6425
▁Director	-6426
▁criteria	-6427
▁mm	-6428
▁minim	-6429
▁bridge	-6430
▁beliefs	-6431
▁Access	-6432
▁Community	-6433
▁measurement	-6434
mat	-6435
▁Tre	-6436
IM	-6437
▁Wik	-6438
▁Model	-6439
▁rivers	-6440
▁Ver	-6441
BS	-6442
▁interpre	-6443
▁knows	-6444
een	-6445
▁Ep	-6446
What	-6447
▁Fund	-6448
▁prev	-6449
▁1999	-6450
▁supplement	-6451
▁Bul	-6452
▁noise	-6453
▁Moreover	-6454
▁join	-6455
quar	-6456
▁Obs	-6457
▁supports	-6458
orses	-6459
amber	-6460
▁essentially	-6461
▁McC	-6462
▁answers	-6463
roduction	-6464
▁machines	-6465
▁pron	-6466
▁route	-6467
▁sacr	-6468
▁ended	-6469
44	-6470
▁tons	-6471
▁regarded	-6472
▁mac	-6473
▁accident	-6474
▁mechanical	-6475
▁Supreme	-6476
adel	-6477
▁ment	-6478
othe	-6479
ounded	-6480
▁directed	-6481
free	-6482
▁street	-6483
▁holding	-6484
ano	-6485
▁artists	-6486
ette	-6487
▁flo	-6488
▁alter	-6489
▁solve	-6490
▁approved	-6491
▁modified	-6492
▁leaf	-6493
▁preced	-6494
▁percentage	-6495
▁Tim	-6496
igned	-6497
▁dedicated	-6498
▁row	-6499
▁Gard	-6500
▁neuro	-6501
▁turns	-6502
▁script	-6503
char	-6504
23	-6505
ushed	-6506
▁categories	-6507
▁significance	-6508
▁fabric	-6509
▁Section	-6510
phone	-6511
▁fisher	-6512
▁optim	-6513
▁EPA	-6514
▁influenced	-6515
riers	-6516
▁rational	-6517
▁wildlife	-6518
orith	-6519
▁touch	-6520
▁absence	-6521
▁Conference	-6522
iety	-6523
apse	-6524
▁Oper	-6525
▁myth	-6526
▁prepare	-6527
▁captured	-6528
▁observation	-6529
DP	-6530
▁sick	-6531
eper	-6532
▁lie	-6533
▁Christians	-6534
iral	-6535
▁conqu	-6536
▁peoples	-6537
▁Modern	-6538
▁islands	-6539
▁centre	-6540
▁committed	-6541
▁exception	-6542
▁investigation	-6543
▁(5	-6544
▁switch	-6545
then	-6546
▁esc	-6547
ivery	-6548
▁zero	-6549
▁Cancer	-6550
▁experimental	-6551
ricts	-6552
▁nurs	-6553
▁withd	-6554
gs	-6555
▁crime	-6556
▁planned	-6557
▁uniform	-6558
▁treatments	-6559
▁participate	-6560
▁Er	-6561
roid	-6562
▁signed	-6563
anes	-6564
▁orb	-6565
▁Pract	-6566
ether	-6567
shaped	-6568
▁concrete	-6569
▁driving	-6570
▁evil	-6571
▁lov	-6572
▁MD	-6573
uset	-6574
▁Den	-6575
▁Pennsylv	-6576
▁assigned	-6577
▁eld	-6578
spe	-6579
igan	-6580
▁implications	-6581
erted	-6582
.).	-6583
▁adequate	-6584
▁meters	-6585
▁compris	-6586
▁underlying	-6587
mas	-6588
▁IP	-6589
▁holds	-6590
▁creative	-6591
▁Swed	-6592
▁meth	-6593
▁honor	-6594
erty	-6595
cling	-6596
▁volt	-6597
▁talking	-6598
▁boys	-6599
▁stre	-6600
▁vac	-6601
▁Ly	-6602
achuset	-6603
ograp	-6604
▁beings	-6605
▁superior	-6606
achusetts	-6607
▁fashion	-6608
▁stations	-6609
▁polar	-6610
▁creates	-6611
▁lessons	-6612
▁2010.	-6613
▁adoles	-6614
▁prominent	-6615
▁1998	-6616
▁bones	-6617
tery	-6618
ults	-6619
▁drink	-6620
sen	-6621
▁Dig	-6622
▁manip	-6623
▁presentation	-6624
▁plus	-6625
▁programming	-6626
etary	-6627
istent	-6628
▁variation	-6629
▁Gar	-6630
▁fract	-6631
▁phone	-6632
▁Indust	-6633
▁Minister	-6634
cium	-6635
▁2011.	-6636
▁wants	-6637
▁9.	-6638
▁mathematical	-6639
▁distributed	-6640
ani	-6641
iary	-6642
48	-6643
▁skill	-6644
▁affects	-6645
▁earliest	-6646
▁fairly	-6647
▁Perhaps	-6648
▁Asian	-6649
▁assumed	-6650
▁Indeed	-6651
▁conserv	-6652
▁Conservation	-6653
illa	-6654
▁stick	-6655
▁Assess	-6656
▁Po	-6657
▁oral	-6658
class	-6659
▁runs	-6660
▁trials	-6661
cribed	-6662
▁Hebrew	-6663
SS	-6664
▁refuge	-6665
ipping	-6666
ptions	-6667
▁sharing	-6668
atial	-6669
▁tube	-6670
▁guarant	-6671
77	-6672
ude	-6673
▁metab	-6674
▁Father	-6675
▁vitamin	-6676
▁Have	-6677
▁enforce	-6678
▁younger	-6679
▁printed	-6680
▁transp	-6681
▁1:	-6682
▁emphasis	-6683
▁continuous	-6684
31	-6685
▁Method	-6686
mann	-6687
")	-6688
▁engines	-6689
▁improving	-6690
▁dependent	-6691
▁Wal	-6692
▁Family	-6693
▁Furthermore	-6694
▁outer	-6695
▁roughly	-6696
▁audience	-6697
▁newly	-6698
▁mobile	-6699
▁Islamic	-6700
▁preval	-6701
▁apparently	-6702
▁Massachusetts	-6703
▁Mos	-6704
eless	-6705
ums	-6706
▁Moon	-6707
▁stead	-6708
▁Policy	-6709
▁spending	-6710
▁characteristic	-6711
He	-6712
▁tank	-6713
▁artist	-6714
▁husband	-6715
▁respectively	-6716
▁plays	-6717
],	-6718
▁Men	-6719
▁proof	-6720
▁Star	-6721
▁gradually	-6722
▁id	-6723
▁generations	-6724
▁lake	-6725
▁argued	-6726
▁engage	-6727
▁worse	-6728
▁planets	-6729
▁PC	-6730
orted	-6731
▁Click	-6732
ella	-6733
ommod	-6734
▁accuracy	-6735
▁TV	-6736
▁Gulf	-6737
▁domain	-6738
▁shaped	-6739
▁Edward	-6740
▁consumers	-6741
▁phenomenon	-6742
alls	-6743
eers	-6744
▁sheet	-6745
esity	-6746
▁cutting	-6747
hesis	-6748
▁ille	-6749
▁males	-6750
▁Pennsylvania	-6751
▁inhabit	-6752
▁trained	-6753
▁interactions	-6754
▁crucial	-6755
▁Security	-6756
▁establishment	-6757
cel	-6758
pled	-6759
icide	-6760
▁Books	-6761
inf	-6762
▁ing	-6763
▁mir	-6764
urric	-6765
▁34	-6766
▁Imm	-6767
▁boy	-6768
▁Navy	-6769
▁literary	-6770
▁Sing	-6771
▁assume	-6772
▁colour	-6773
▁tall	-6774
▁mice	-6775
▁engaged	-6776
▁thoughts	-6777
▁cited	-6778
▁channel	-6779
ca	-6780
sue	-6781
▁victims	-6782
▁scientist	-6783
▁debt	-6784
va	-6785
▁6,	-6786
▁Unf	-6787
▁concluded	-6788
LA	-6789
▁desired	-6790
An	-6791
oked	-6792
onia	-6793
▁Prince	-6794
▁memb	-6795
95	-6796
▁conven	-6797
▁Kenn	-6798
▁equally	-6799
▁helpful	-6800
inson	-6801
▁granted	-6802
▁mortality	-6803
▁Sand	-6804
-12	-6805
▁judge	-6806
▁danger	-6807
▁variables	-6808
▁Equ	-6809
▁Again	-6810
agan	-6811
▁Darwin	-6812
▁writers	-6813
▁decide	-6814
▁pounds	-6815
how	-6816
▁Georgia	-6817
▁banks	-6818
▁Creat	-6819
▁Secretary	-6820
RA	-6821
ENT	-6822
▁1950	-6823
▁branch	-6824
▁neur	-6825
▁sharp	-6826
▁demands	-6827
▁ordinary	-6828
▁strict	-6829
▁routine	-6830
▁purchase	-6831
▁consideration	-6832
osh	-6833
▁kilomet	-6834
OC	-6835
from	-6836
▁Author	-6837
including	-6838
▁category	-6839
▁Scientists	-6840
bles	-6841
br	-6842
▁examined	-6843
▁Far	-6844
ferent	-6845
▁employees	-6846
▁ble	-6847
▁Light	-6848
yles	-6849
▁frequent	-6850
▁Make	-6851
▁peak	-6852
urches	-6853
▁om	-6854
earing	-6855
▁inhib	-6856
▁photo	-6857
▁duty	-6858
▁suffer	-6859
▁Mah	-6860
vin	-6861
▁inher	-6862
▁blocks	-6863
▁tropical	-6864
▁recept	-6865
ediatric	-6866
asive	-6867
▁Look	-6868
▁chap	-6869
unicip	-6870
▁concentrations	-6871
Is	-6872
eness	-6873
▁moves	-6874
rous	-6875
▁examination	-6876
▁38	-6877
▁intense	-6878
▁seg	-6879
▁quarter	-6880
▁enorm	-6881
iac	-6882
▁algorith	-6883
▁presents	-6884
▁settlement	-6885
▁AM	-6886
You	-6887
▁Cross	-6888
▁rarely	-6889
▁viewed	-6890
▁carrying	-6891
▁surfaces	-6892
▁compounds	-6893
▁interface	-6894
▁400	-6895
▁doi	-6896
▁acquired	-6897
▁acres	-6898
CD	-6899
▁Get	-6900
▁pointed	-6901
UT	-6902
▁voc	-6903
▁fold	-6904
▁slaves	-6905
▁slavery	-6906
▁Engineering	-6907
▁connections	-6908
making	-6909
OM	-6910
oured	-6911
▁correl	-6912
▁Justice	-6913
ache	-6914
sell	-6915
▁ahead	-6916
▁sports	-6917
▁van	-6918
▁match	-6919
cons	-6920
inite	-6921
▁Researchers	-6922
alm	-6923
Ph	-6924
dis	-6925
▁inn	-6926
elfare	-6927
▁temple	-6928
▁sevent	-6929
▁gravity	-6930
gans	-6931
▁Harvard	-6932
▁psychological	-6933
▁blind	-6934
▁logic	-6935
▁2012.	-6936
▁insects	-6937
▁jur	-6938
▁Capt	-6939
▁guard	-6940
century	-6941
▁sentence	-6942
▁handle	-6943
▁gap	-6944
▁Liter	-6945
▁elsewhere	-6946
▁Cub	-6947
▁crow	-6948
▁gained	-6949
▁fasc	-6950
▁escape	-6951
▁Disease	-6952
▁evolved	-6953
▁functional	-6954
▁mining	-6955
▁females	-6956
otyp	-6957
ady	-6958
▁Py	-6959
▁unusual	-6960
▁IV	-6961
▁Francisco	-6962
▁Open	-6963
▁orders	-6964
ounce	-6965
▁representation	-6966
?”	-6967
▁Pot	-6968
▁Coll	-6969
▁entit	-6970
▁Low	-6971
▁trip	-6972
ultane	-6973
▁gases	-6974
idance	-6975
otton	-6976
▁choices	-6977
▁feeding	-6978
▁feelings	-6979
▁Jul	-6980
▁Pak	-6981
▁combat	-6982
▁perception	-6983
▁racial	-6984
▁engineers	-6985
▁Kn	-6986
▁Material	-6987
yright	-6988
▁characterized	-6989
▁receiving	-6990
▁recommendations	-6991
pling	-6992
▁mixt	-6993
▁bread	-6994
▁extend	-6995
▁Corn	-6996
▁Exam	-6997
▁abstract	-6998
ima	-6999
▁begun	-7000
▁faculty	-7001
▁preparation	-7002
ao	-7003
ecess	-7004
erman	-7005
▁Mult	-7006
▁battery	-7007
▁filter	-7008
▁aren	-7009
▁resident	-7010
▁Bureau	-7011
▁Lee	-7012
▁writes	-7013
CE	-7014
▁Sign	-7015
▁Google	-7016
▁charged	-7017
▁accommod	-7018
▁evolutionary	-7019
▁config	-7020
▁expanded	-7021
▁libr	-7022
▁satisf	-7023
CH	-7024
ourage	-7025
▁liver	-7026
▁covers	-7027
▁mountains	-7028
66	-7029
▁isolated	-7030
▁achievement	-7031
▁spacecraft	-7032
▁Online	-7033
▁Bus	-7034
▁Fred	-7035
▁hazard	-7036
rav	-7037
▁Ari	-7038
▁agent	-7039
▁sciences	-7040
isdom	-7041
▁adap	-7042
▁Source	-7043
▁tub	-7044
icted	-7045
▁fulf	-7046
▁officer	-7047
▁glac	-7048
asty	-7049
▁passing	-7050
▁collaboration	-7051
▁Cast	-7052
▁biod	-7053
▁thorough	-7054
▁Mean	-7055
▁quantum	-7056
▁Unfortunately	-7057
rical	-7058
▁argue	-7059
▁veloc	-7060
▁radical	-7061
▁behaviors	-7062
▁evident	-7063
▁vertical	-7064
▁Ut	-7065
ivered	-7066
▁corner	-7067
▁fruits	-7068
▁flows	-7069
▁fertil	-7070
▁Gr	-7071
iability	-7072
▁Lo	-7073
▁1997	-7074
▁consumer	-7075
▁invention	-7076
▁personnel	-7077
:10.	-7078
▁Tom	-7079
erals	-7080
▁evaluate	-7081
▁dimensions	-7082
▁defend	-7083
▁addressed	-7084
▁Rh	-7085
▁suffered	-7086
▁holes	-7087
▁Tri	-7088
ologic	-7089
▁Senate	-7090
▁Jo	-7091
▁spectrum	-7092
▁Hand	-7093
▁towns	-7094
▁behaviour	-7095
ographical	-7096
arsh	-7097
▁installed	-7098
▁worship	-7099
usalem	-7100
▁courts	-7101
▁myst	-7102
▁Convention	-7103
adelph	-7104
prof	-7105
▁Arctic	-7106
▁consciousness	-7107
▁Pen	-7108
▁Economic	-7109
▁Encyclopedia	-7110
ourse	-7111
▁Confed	-7112
▁vegetables	-7113
EE	-7114
▁regularly	-7115
▁analys	-7116
▁descript	-7117
▁finds	-7118
▁Alexander	-7119
▁indigenous	-7120
▁driven	-7121
▁doctors	-7122
▁advert	-7123
▁instructions	-7124
▁Christianity	-7125
▁effectiveness	-7126
▁biom	-7127
▁Hor	-7128
▁dism	-7129
▁rect	-7130
▁statements	-7131
▁exped	-7132
ilosop	-7133
▁Network	-7134
▁reactions	-7135
etime	-7136
▁Systems	-7137
▁delivery	-7138
uts	-7139
▁accompan	-7140
▁traditions	-7141
▁py	-7142
ieval	-7143
▁ongoing	-7144
▁confidence	-7145
▁shop	-7146
raining	-7147
▁cattle	-7148
▁separated	-7149
▁MS	-7150
▁thy	-7151
▁roads	-7152
▁array	-7153
▁forming	-7154
archy	-7155
▁Quest	-7156
▁intent	-7157
▁hun	-7158
▁virtual	-7159
▁spin	-7160
79	-7161
▁ped	-7162
▁slave	-7163
▁copyright	-7164
▁implemented	-7165
onomic	-7166
ascular	-7167
▁happy	-7168
▁democracy	-7169
met	-7170
▁notion	-7171
▁7,	-7172
▁Hawai	-7173
▁horses	-7174
charge	-7175
▁Chief	-7176
▁initially	-7177
inois	-7178
▁2008.	-7179
▁compare	-7180
otype	-7181
ipedia	-7182
▁panel	-7183
▁prompt	-7184
▁trends	-7185
ucky	-7186
▁Stan	-7187
▁arguments	-7188
▁structural	-7189
▁batt	-7190
▁disaster	-7191
▁DC	-7192
▁cab	-7193
▁accord	-7194
ocy	-7195
▁players	-7196
▁armed	-7197
▁atoms	-7198
fts	-7199
atus	-7200
▁Sund	-7201
▁heads	-7202
olt	-7203
▁48	-7204
▁Sar	-7205
________	-7206
using	-7207
▁Later	-7208
▁relief	-7209
▁heavily	-7210
▁Historical	-7211
▁Lew	-7212
▁neck	-7213
ruption	-7214
▁Zeal	-7215
▁linear	-7216
▁ourselves	-7217
▁thereby	-7218
gent	-7219
▁fed	-7220
▁journey	-7221
▁statistics	-7222
▁difficulties	-7223
ouds	-7224
▁Colorado	-7225
▁CH	-7226
▁branches	-7227
▁contributed	-7228
quir	-7229
▁artificial	-7230
sets	-7231
▁vegetation	-7232
oric	-7233
▁sod	-7234
▁lists	-7235
produ	-7236
sts	-7237
▁classical	-7238
rection	-7239
▁societies	-7240
▁cav	-7241
enger	-7242
▁neighborhood	-7243
▁33	-7244
▁Next	-7245
izer	-7246
▁Dutch	-7247
▁Jerusalem	-7248
▁lots	-7249
▁plain	-7250
▁senior	-7251
▁fellow	-7252
▁tribes	-7253
vation	-7254
▁translation	-7255
▁encouraged	-7256
▁Los	-7257
▁outcome	-7258
Un	-7259
▁interm	-7260
▁starts	-7261
adelphia	-7262
▁analog	-7263
▁versions	-7264
▁contribution	-7265
▁communications	-7266
irt	-7267
▁settled	-7268
76	-7269
▁Max	-7270
▁smooth	-7271
▁muscles	-7272
elve	-7273
issipp	-7274
▁draft	-7275
▁shock	-7276
vi	-7277
▁Year	-7278
yal	-7279
▁scar	-7280
▁Colon	-7281
▁usual	-7282
▁bringing	-7283
▁Object	-7284
▁universities	-7285
55	-7286
▁Ur	-7287
▁2009.	-7288
▁Parliament	-7289
▁industries	-7290
itarian	-7291
abul	-7292
▁seeking	-7293
ulpt	-7294
▁dynamic	-7295
gi	-7296
emb	-7297
▁Gall	-7298
athered	-7299
▁careful	-7300
▁businesses	-7301
%)	-7302
▁gram	-7303
▁chemistry	-7304
▁professionals	-7305
▁giant	-7306
▁reliable	-7307
asm	-7308
▁10,	-7309
▁mur	-7310
▁legs	-7311
▁plot	-7312
▁raw	-7313
▁prosp	-7314
▁roles	-7315
▁settings	-7316
▁Ref	-7317
▁confirmed	-7318
endment	-7319
▁dramatic	-7320
▁delivered	-7321
iner	-7322
onds	-7323
▁chlor	-7324
▁infected	-7325
acco	-7326
▁decor	-7327
▁propag	-7328
▁Organization	-7329
▁Road	-7330
▁poison	-7331
▁Aff	-7332
▁turning	-7333
▁Sometimes	-7334
.:	-7335
▁identification	-7336
▁Down	-7337
▁chair	-7338
ochem	-7339
▁Init	-7340
▁server	-7341
▁2007.	-7342
▁targets	-7343
▁feedback	-7344
▁Protection	-7345
▁definite	-7346
▁Ol	-7347
▁rhy	-7348
▁districts	-7349
abeth	-7350
▁pursu	-7351
operative	-7352
▁highlight	-7353
▁Illinois	-7354
▁quantity	-7355
▁accessible	-7356
yer	-7357
▁Nob	-7358
▁neu	-7359
▁essay	-7360
▁Pakistan	-7361
▁download	-7362
▁precip	-7363
▁Zealand	-7364
▁observe	-7365
▁Standard	-7366
▁copper	-7367
▁AP	-7368
plication	-7369
▁empt	-7370
▁Contin	-7371
▁Little	-7372
▁errors	-7373
umps	-7374
▁scan	-7375
▁Point	-7376
▁references	-7377
▁session	-7378
▁explicit	-7379
▁offering	-7380
yd	-7381
icular	-7382
▁Spirit	-7383
46	-7384
▁pregnancy	-7385
▁EU	-7386
bing	-7387
▁pilot	-7388
real	-7389
▁Cle	-7390
ontal	-7391
▁Fire	-7392
▁interior	-7393
▁wing	-7394
▁assembly	-7395
▁Field	-7396
▁taste	-7397
▁Crit	-7398
▁grain	-7399
▁sales	-7400
▁seat	-7401
▁coverage	-7402
▁veter	-7403
▁shore	-7404
▁simultane	-7405
▁Mississipp	-7406
▁75	-7407
▁Bush	-7408
▁Ken	-7409
▁conclus	-7410
sembly	-7411
▁finished	-7412
http	-7413
▁tight	-7414
oom	-7415
▁grid	-7416
▁Michigan	-7417
pes	-7418
▁forg	-7419
ilation	-7420
▁putting	-7421
▁Pass	-7422
▁rose	-7423
▁player	-7424
▁burning	-7425
▁voltage	-7426
net	-7427
hent	-7428
▁lens	-7429
angered	-7430
ami	-7431
▁Less	-7432
▁inflamm	-7433
▁laser	-7434
outs	-7435
▁sup	-7436
▁Eliz	-7437
▁conj	-7438
▁diag	-7439
▁optical	-7440
▁CA	-7441
▁reveal	-7442
▁literacy	-7443
▁executive	-7444
▁Plant	-7445
▁cas	-7446
plant	-7447
:||	-7448
▁beauty	-7449
▁minute	-7450
▁serves	-7451
lan	-7452
▁178	-7453
▁Cro	-7454
▁Works	-7455
ogether	-7456
▁psychology	-7457
▁Relig	-7458
▁hence	-7459
▁particle	-7460
odox	-7461
▁Centre	-7462
esides	-7463
▁Spring	-7464
occ	-7465
▁ampl	-7466
▁constra	-7467
▁strike	-7468
▁remarkable	-7469
▁stimul	-7470
▁compens	-7471
▁biggest	-7472
▁variations	-7473
▁item	-7474
▁falls	-7475
▁dealing	-7476
▁)	-7477
▁parad	-7478
azing	-7479
bec	-7480
isk	-7481
▁pros	-7482
▁provin	-7483
▁removal	-7484
.),	-7485
▁mos	-7486
olving	-7487
▁ecological	-7488
49	-7489
mail	-7490
▁attribut	-7491
imensional	-7492
▁permission	-7493
oding	-7494
▁existed	-7495
▁graduate	-7496
▁virtually	-7497
▁cooperation	-7498
▁8,	-7499
▁teams	-7500
47	-7501
ricted	-7502
▁corresponding	-7503
▁DO	-7504
ghan	-7505
▁Major	-7506
▁caught	-7507
▁trouble	-7508
▁substances	-7509
zer	-7510
apor	-7511
▁View	-7512
▁Marine	-7513
ba	-7514
ackson	-7515
▁detected	-7516
▁specified	-7517
otal	-7518
▁Article	-7519
▁intensity	-7520
▁Ba	-7521
▁provision	-7522
rays	-7523
▁missing	-7524
▁musical	-7525
▁breeding	-7526
▁scope	-7527
▁divine	-7528
rolled	-7529
▁extension	-7530
▁hypothesis	-7531
▁Ott	-7532
▁wasn	-7533
regation	-7534
▁Find	-7535
struct	-7536
▁Philadelphia	-7537
▁37	-7538
idity	-7539
▁reasonable	-7540
itual	-7541
▁Copyright	-7542
▁exhibit	-7543
▁commitment	-7544
▁1930	-7545
▁criminal	-7546
▁insurance	-7547
▁partner	-7548
▁communicate	-7549
ostic	-7550
▁Korea	-7551
▁listen	-7552
▁ath	-7553
itivity	-7554
▁Windows	-7555
def	-7556
▁Hom	-7557
▁visited	-7558
▁visitors	-7559
hus	-7560
▁Way	-7561
▁complicated	-7562
rooms	-7563
▁nutrients	-7564
▁Cam	-7565
▁tables	-7566
▁neutral	-7567
▁photos	-7568
▁imaging	-7569
▁(6	-7570
▁tor	-7571
▁fro	-7572
▁adds	-7573
▁council	-7574
▁volumes	-7575
▁les	-7576
▁scores	-7577
rin	-7578
▁organs	-7579
▁1996	-7580
▁sweet	-7581
kl	-7582
▁cards	-7583
▁discrimination	-7584
sm	-7585
weight	-7586
▁nitrogen	-7587
▁Bu	-7588
uscript	-7589
haust	-7590
▁constantly	-7591
just	-7592
esh	-7593
▁179	-7594
▁stuff	-7595
▁photographs	-7596
▁earn	-7597
▁calling	-7598
▁ft	-7599
▁11,	-7600
ymph	-7601
▁calcium	-7602
▁ca	-7603
iture	-7604
▁Century	-7605
▁serving	-7606
rint	-7607
▁encoun	-7608
▁intern	-7609
▁occupied	-7610
ulin	-7611
hma	-7612
▁theoretical	-7613
▁colonial	-7614
itals	-7615
▁intake	-7616
▁covering	-7617
▁measuring	-7618
▁improvements	-7619
▁Mississippi	-7620
▁boundaries	-7621
▁reflected	-7622
▁NO	-7623
▁Pur	-7624
▁nest	-7625
▁Daniel	-7626
ventions	-7627
▁thermal	-7628
▁cooling	-7629
▁Building	-7630
▁vulnerable	-7631
▁Does	-7632
oto	-7633
anned	-7634
earch	-7635
▁Third	-7636
▁steam	-7637
▁coff	-7638
▁buried	-7639
▁refused	-7640
▁sediment	-7641
DS	-7642
▁owned	-7643
▁Testament	-7644
▁province	-7645
▁65	-7646
issance	-7647
raham	-7648
▁newspaper	-7649
▁fer	-7650
▁15,	-7651
▁AT	-7652
▁wheel	-7653
apping	-7654
▁nerve	-7655
▁enormous	-7656
▁pion	-7657
▁wars	-7658
▁Battle	-7659
▁brings	-7660
▁realize	-7661
▁irrig	-7662
▁smoke	-7663
▁facing	-7664
▁entitled	-7665
▁guidance	-7666
▁minority	-7667
BM	-7668
iat	-7669
rove	-7670
▁Ess	-7671
▁ton	-7672
aints	-7673
▁Andrew	-7674
▁counsel	-7675
rem	-7676
aired	-7677
▁Take	-7678
▁rice	-7679
▁Corps	-7680
▁funded	-7681
▁eru	-7682
ailing	-7683
▁outbre	-7684
regon	-7685
▁Queen	-7686
▁resid	-7687
▁anxiety	-7688
▁teen	-7689
atively	-7690
▁Jackson	-7691
irms	-7692
zone	-7693
▁advis	-7694
▁MA	-7695
▁Offic	-7696
▁believes	-7697
▁Philosoph	-7698
▁sacred	-7699
▁informed	-7700
)|	-7701
▁boat	-7702
▁nom	-7703
OP	-7704
▁clar	-7705
▁Obama	-7706
▁mineral	-7707
zo	-7708
▁rab	-7709
▁thread	-7710
▁threatened	-7711
sis	-7712
▁sect	-7713
adow	-7714
▁incident	-7715
▁Small	-7716
▁Vietnam	-7717
Gen	-7718
▁Ice	-7719
▁thirty	-7720
▁formula	-7721
▁disk	-7722
▁dates	-7723
▁poetry	-7724
▁exploration	-7725
una	-7726
▁cub	-7727
▁Key	-7728
▁alph	-7729
agnetic	-7730
▁overw	-7731
▁Nut	-7732
abits	-7733
onym	-7734
▁wine	-7735
▁contributions	-7736
-200	-7737
▁Typ	-7738
▁distant	-7739
▁dominant	-7740
▁disabilities	-7741
’.	-7742
▁1,000	-7743
▁Hospital	-7744
ati	-7745
▁ye	-7746
acent	-7747
▁victory	-7748
uther	-7749
▁sculpt	-7750
▁dose	-7751
▁1995	-7752
▁drain	-7753
eping	-7754
▁Arts	-7755
▁injuries	-7756
’,	-7757
For	-7758
enza	-7759
▁flour	-7760
▁taxes	-7761
▁heaven	-7762
▁Without	-7763
ali	-7764
lected	-7765
▁tract	-7766
▁usage	-7767
▁Within	-7768
▁convin	-7769
▁Wilson	-7770
▁Following	-7771
▁obesity	-7772
▁Agriculture	-7773
▁2:	-7774
▁buff	-7775
▁AR	-7776
asant	-7777
▁acknowled	-7778
▁Die	-7779
icious	-7780
▁Fair	-7781
▁wait	-7782
EF	-7783
▁integration	-7784
▁mine	-7785
▁focuses	-7786
▁reaching	-7787
▁phenomena	-7788
rot	-7789
▁imagine	-7790
▁jump	-7791
▁mild	-7792
rowing	-7793
▁grounds	-7794
ologically	-7795
▁continuing	-7796
▁Mid	-7797
▁considering	-7798
▁stability	-7799
▁technological	-7800
bell	-7801
▁ingred	-7802
▁windows	-7803
▁seconds	-7804
▁Es	-7805
▁spaces	-7806
eting	-7807
▁Portug	-7808
▁emerged	-7809
▁magnitude	-7810
df	-7811
▁tempor	-7812
▁Elizabeth	-7813
And	-7814
▁hall	-7815
▁owner	-7816
▁Fed	-7817
omach	-7818
▁manifest	-7819
tw	-7820
2),	-7821
▁Head	-7822
▁Islands	-7823
▁parameters	-7824
▁curve	-7825
▁faced	-7826
▁representative	-7827
▁soph	-7828
▁churches	-7829
▁detection	-7830
▁atmospheric	-7831
▁12,	-7832
▁Him	-7833
▁collections	-7834
gon	-7835
▁Creek	-7836
▁stood	-7837
▁abnormal	-7838
▁Kent	-7839
▁Oregon	-7840
▁streams	-7841
▁velocity	-7842
▁Ell	-7843
▁pup	-7844
▁labour	-7845
ois	-7846
▁Still	-7847
▁Scotland	-7848
▁capabilities	-7849
▁maintaining	-7850
coming	-7851
▁stores	-7852
▁anthrop	-7853
▁1)	-7854
quis	-7855
▁Princi	-7856
▁mixture	-7857
▁regulation	-7858
▁Hit	-7859
brid	-7860
kind	-7861
▁losses	-7862
▁partly	-7863
▁crown	-7864
▁inspired	-7865
▁stronger	-7866
▁Jefferson	-7867
▁preserve	-7868
▁drought	-7869
uma	-7870
plete	-7871
▁philosop	-7872
▁Mur	-7873
▁attitude	-7874
▁screening	-7875
oven	-7876
▁tut	-7877
▁attempted	-7878
mod	-7879
▁anticip	-7880
▁bless	-7881
▁priority	-7882
har	-7883
chen	-7884
books	-7885
gers	-7886
▁Sem	-7887
▁availability	-7888
MP	-7889
▁Assembly	-7890
▁Assessment	-7891
▁rely	-7892
▁oldest	-7893
▁damaged	-7894
▁realized	-7895
▁]	-7896
▁aster	-7897
▁developments	-7898
▁Analysis	-7899
▁directions	-7900
▁~	-7901
▁dict	-7902
onomy	-7903
rix	-7904
▁liberal	-7905
▁magazine	-7906
ouri	-7907
▁sched	-7908
▁hidden	-7909
▁resemb	-7910
▁readily	-7911
/20	-7912
ubble	-7913
thur	-7914
▁Norm	-7915
unicipal	-7916
▁farming	-7917
after	-7918
bel	-7919
▁regime	-7920
▁ritual	-7921
soft	-7922
▁Dev	-7923
irable	-7924
▁acute	-7925
▁royal	-7926
▁theme	-7927
▁repair	-7928
▁183	-7929
▁asking	-7930
oul	-7931
ogenic	-7932
thodox	-7933
▁judgment	-7934
▁calculated	-7935
▁swim	-7936
▁Solar	-7937
▁marks	-7938
▁AL	-7939
▁cup	-7940
lines	-7941
▁involvement	-7942
▁Neg	-7943
▁phosph	-7944
amination	-7945
▁Independ	-7946
▁messages	-7947
▁converted	-7948
▁Muslims	-7949
▁distinction	-7950
▁complexity	-7951
▁unw	-7952
▁dropped	-7953
▁warning	-7954
▁Wildlife	-7955
▁ecosystems	-7956
▁Ast	-7957
ailable	-7958
▁Kansas	-7959
icate	-7960
▁Invest	-7961
▁determining	-7962
▁Lin	-7963
▁(197	-7964
▁desert	-7965
▁emerging	-7966
▁dense	-7967
▁physician	-7968
▁tens	-7969
68	-7970
▁Ho	-7971
▁OCR	-7972
▁Physics	-7973
▁probability	-7974
▁occas	-7975
▁violent	-7976
▁walking	-7977
▁renewable	-7978
isd	-7979
▁Jr	-7980
▁Abraham	-7981
▁occurring	-7982
▁worst	-7983
/200	-7984
▁pharm	-7985
▁sizes	-7986
▁killing	-7987
▁streets	-7988
▁advantages	-7989
See	-7990
▁Word	-7991
utation	-7992
▁inhabitants	-7993
oids	-7994
▁pit	-7995
anger	-7996
▁acids	-7997
▁consequence	-7998
▁beam	-7999
action	-8000
▁flying	-8001
EA	-8002
▁butter	-8003
sem	-8004
▁thr	-8005
oca	-8006
ineteenth	-8007
▁paras	-8008
▁advent	-8009
▁contents	-8010
ician	-8011
▁Antar	-8012
uten	-8013
▁Saint	-8014
▁Albert	-8015
▁doctrine	-8016
▁mouse	-8017
▁9,	-8018
▁brand	-8019
▁everyday	-8020
▁identical	-8021
▁Circ	-8022
▁predicted	-8023
▁hosp	-8024
western	-8025
▁hal	-8026
▁kingdom	-8027
▁forecast	-8028
▁recre	-8029
▁heating	-8030
ifice	-8031
▁Doc	-8032
▁Town	-8033
▁eliminate	-8034
IF	-8035
iger	-8036
▁kit	-8037
▁vector	-8038
▁welfare	-8039
▁Lead	-8040
▁milit	-8041
idal	-8042
onents	-8043
▁galaxies	-8044
forest	-8045
▁faces	-8046
▁degrad	-8047
▁shoot	-8048
ensed	-8049
iblical	-8050
▁discussions	-8051
▁2010,	-8052
▁hardware	-8053
▁attitudes	-8054
ga	-8055
▁wisdom	-8056
▁representing	-8057
▁score	-8058
▁exhaust	-8059
▁migration	-8060
foot	-8061
▁sons	-8062
▁computing	-8063
▁programme	-8064
▁fiber	-8065
rene	-8066
▁lowest	-8067
▁Safety	-8068
▁$1	-8069
rity	-8070
▁Jacob	-8071
▁manufacturers	-8072
▁Start	-8073
▁aimed	-8074
word	-8075
▁Philipp	-8076
▁Pu	-8077
▁Log	-8078
.’	-8079
▁`	-8080
rat	-8081
▁acting	-8082
hire	-8083
▁Text	-8084
CL	-8085
▁Fact	-8086
▁proven	-8087
▁evening	-8088
eath	-8089
▁colonies	-8090
▁tips	-8091
▁proposal	-8092
▁accompanied	-8093
she	-8094
ieth	-8095
▁copies	-8096
rite	-8097
▁farms	-8098
▁affairs	-8099
ATION	-8100
chnology	-8101
▁spatial	-8102
▁differ	-8103
▁promise	-8104
▁Nevertheless	-8105
▁Bang	-8106
▁flav	-8107
▁pin	-8108
▁designated	-8109
eller	-8110
▁bare	-8111
▁tact	-8112
abulary	-8113
1),	-8114
▁privile	-8115
▁reign	-8116
CA	-8117
▁39	-8118
▁scholar	-8119
▁elections	-8120
heimer	-8121
▁equation	-8122
▁recru	-8123
▁meteor	-8124
▁55	-8125
▁fought	-8126
dimensional	-8127
claim	-8128
▁HT	-8129
▁Egyptian	-8130
aven	-8131
text	-8132
▁2008,	-8133
▁ranging	-8134
ifer	-8135
borne	-8136
▁preferred	-8137
▁CP	-8138
▁reef	-8139
▁Check	-8140
▁scheme	-8141
▁modeling	-8142
▁medications	-8143
quarters	-8144
itory	-8145
▁strange	-8146
▁unp	-8147
▁illegal	-8148
orig	-8149
▁Ca	-8150
▁viruses	-8151
▁Much	-8152
▁gods	-8153
▁profit	-8154
▁Between	-8155
ifferent	-8156
wan	-8157
▁Type	-8158
▁1994	-8159
▁perceived	-8160
▁Prevention	-8161
▁strengthen	-8162
▁Afghan	-8163
▁spoken	-8164
▁initiative	-8165
▁Santa	-8166
▁cotton	-8167
▁Williams	-8168
iop	-8169
sub	-8170
▁clouds	-8171
▁Angeles	-8172
▁gathered	-8173
▁varieties	-8174
▁Full	-8175
▁clock	-8176
iological	-8177
▁Ariz	-8178
▁club	-8179
▁spons	-8180
▁operated	-8181
ersonal	-8182
ugg	-8183
▁Temple	-8184
▁respir	-8185
▁20,	-8186
awa	-8187
▁falling	-8188
ptic	-8189
▁Bern	-8190
▁printing	-8191
▁precisely	-8192
▁Corpor	-8193
▁autism	-8194
AB	-8195
asma	-8196
▁summary	-8197
▁Ministry	-8198
iations	-8199
▁phrase	-8200
▁educators	-8201
▁obser	-8202
▁Unlike	-8203
▁contrad	-8204
▁compound	-8205
▁writings	-8206
▁statistical	-8207
ught	-8208
▁alive	-8209
▁hunting	-8210
▁smoking	-8211
▁reserved	-8212
▁Dictionary	-8213
▁descend	-8214
▁Governor	-8215
▁Rab	-8216
▁stopped	-8217
▁moisture	-8218
▁productivity	-8219
ustain	-8220
▁Fil	-8221
▁pestic	-8222
▁fix	-8223
oys	-8224
asts	-8225
▁minister	-8226
▁Pope	-8227
▁Rail	-8228
▁clay	-8229
aws	-8230
aming	-8231
angel	-8232
▁TO	-8233
▁interactive	-8234
43	-8235
▁adverse	-8236
vals	-8237
▁adapted	-8238
uits	-8239
▁Fig	-8240
▁Cell	-8241
▁Learn	-8242
trans	-8243
▁Univers	-8244
▁immigrants	-8245
EG	-8246
▁Turk	-8247
▁embra	-8248
▁reporting	-8249
emia	-8250
oded	-8251
▁Missouri	-8252
▁lingu	-8253
▁missions	-8254
%.	-8255
bean	-8256
▁landing	-8257
▁hat	-8258
aka	-8259
▁tooth	-8260
▁Berlin	-8261
▁administrative	-8262
▁3-	-8263
▁dipl	-8264
▁2)	-8265
rons	-8266
▁AIDS	-8267
▁beat	-8268
teb	-8269
▁Bell	-8270
▁identifying	-8271
▁Lewis	-8272
▁clothing	-8273
▁ultimate	-8274
▁Ident	-8275
▁researcher	-8276
ador	-8277
▁hier	-8278
▁Summ	-8279
▁till	-8280
agraph	-8281
▁colony	-8282
enh	-8283
▁marg	-8284
▁Schools	-8285
,'	-8286
mond	-8287
▁gro	-8288
▁logical	-8289
▁decreased	-8290
▁conversion	-8291
▁thanks	-8292
▁Biology	-8293
▁preserved	-8294
▁pool	-8295
▁invasion	-8296
▁Ha	-8297
▁Tit	-8298
▁Mess	-8299
▁assert	-8300
▁substit	-8301
▁minds	-8302
▁split	-8303
▁earthquake	-8304
▁merch	-8305
▁humanity	-8306
ropol	-8307
▁subsid	-8308
outheast	-8309
▁Station	-8310
iov	-8311
ayer	-8312
▁tissues	-8313
being	-8314
▁Blue	-8315
▁Given	-8316
▁Mexican	-8317
▁Scientific	-8318
atal	-8319
▁Sunday	-8320
▁heritage	-8321
▁Ram	-8322
▁Marsh	-8323
▁electrons	-8324
▁discipline	-8325
rator	-8326
▁symp	-8327
▁reward	-8328
98	-8329
▁asc	-8330
▁rend	-8331
▁2006.	-8332
▁tumor	-8333
▁lights	-8334
ila	-8335
▁gent	-8336
▁dress	-8337
▁Alaska	-8338
asy	-8339
aine	-8340
▁bath	-8341
▁adolesc	-8342
▁separation	-8343
▁ven	-8344
orters	-8345
▁remind	-8346
▁17,	-8347
▁Occ	-8348
▁epis	-8349
▁beneficial	-8350
▁Cost	-8351
inates	-8352
ais	-8353
▁SP	-8354
▁Squ	-8355
▁Peace	-8356
▁flower	-8357
42	-8358
▁tort	-8359
▁insight	-8360
▁Isa	-8361
teenth	-8362
▁Jones	-8363
▁infants	-8364
▁symbols	-8365
▁Right	-8366
▁stones	-8367
▁trem	-8368
▁infect	-8369
section	-8370
▁threats	-8371
▁anywhere	-8372
▁Sus	-8373
▁pert	-8374
ranean	-8375
istence	-8376
▁versus	-8377
▁channels	-8378
cut	-8379
power	-8380
▁wheat	-8381
▁overwhel	-8382
▁distinguished	-8383
▁audio	-8384
▁stomach	-8385
▁Ib	-8386
▁meetings	-8387
▁moderate	-8388
▁Card	-8389
▁inch	-8390
▁fuels	-8391
▁enthus	-8392
▁origins	-8393
▁ion	-8394
▁vig	-8395
omatic	-8396
▁Parent	-8397
▁styles	-8398
▁boundary	-8399
▁sophistic	-8400
▁Emer	-8401
erly	-8402
▁Near	-8403
▁craft	-8404
▁deeper	-8405
struction	-8406
▁Os	-8407
▁Gre	-8408
▁penet	-8409
▁elementary	-8410
▁mg	-8411
▁boost	-8412
▁Mathemat	-8413
cia	-8414
▁Similarly	-8415
owed	-8416
▁stroke	-8417
▁reduces	-8418
▁overcome	-8419
ivest	-8420
▁client	-8421
▁varied	-8422
▁knowing	-8423
▁influences	-8424
cule	-8425
▁abandoned	-8426
▁behavioral	-8427
▁restricted	-8428
▁limitations	-8429
▁ash	-8430
▁temporary	-8431
▁transferred	-8432
▁SS	-8433
umer	-8434
▁entering	-8435
▁erect	-8436
▁forget	-8437
▁sovere	-8438
▁displayed	-8439
▁11.	-8440
▁2009,	-8441
▁spoke	-8442
▁attended	-8443
▁metals	-8444
ffective	-8445
De	-8446
III	-8447
unar	-8448
▁18,	-8449
▁Christmas	-8450
▁innovation	-8451
▁personality	-8452
▁12.	-8453
▁cul	-8454
inian	-8455
olester	-8456
▁Action	-8457
▁tendency	-8458
▁economics	-8459
▁conce	-8460
▁cort	-8461
essions	-8462
▁Arizona	-8463
ker	-8464
opes	-8465
thew	-8466
endar	-8467
▁dimin	-8468
▁consisting	-8469
▁Area	-8470
▁poet	-8471
▁villages	-8472
▁compos	-8473
▁classic	-8474
▁quantities	-8475
imp	-8476
▁Var	-8477
▁soils	-8478
▁civilization	-8479
lymp	-8480
▁dance	-8481
▁deeply	-8482
▁Mountain	-8483
:5	-8484
cho	-8485
▁embry	-8486
▁Hitler	-8487
▁therap	-8488
▁facilitate	-8489
quiry	-8490
▁Resp	-8491
▁Business	-8492
▁profound	-8493
▁manuscript	-8494
▁constitutional	-8495
UL	-8496
uled	-8497
▁favorite	-8498
▁vs	-8499
▁fever	-8500
▁raising	-8501
▁sport	-8502
▁Protest	-8503
▁twelve	-8504
Ex	-8505
▁sees	-8506
▁permit	-8507
writ	-8508
▁axis	-8509
▁poem	-8510
▁genome	-8511
▁beneath	-8512
▁inev	-8513
mental	-8514
▁distinguish	-8515
▁Nic	-8516
▁movie	-8517
▁grades	-8518
▁devoted	-8519
▁deposits	-8520
olk	-8521
▁updated	-8522
▁Ask	-8523
▁habits	-8524
▁translated	-8525
CP	-8526
▁absor	-8527
▁candidate	-8528
▁2007,	-8529
▁legit	-8530
nesota	-8531
▁authent	-8532
▁incorporated	-8533
▁Move	-8534
▁nice	-8535
▁striking	-8536
▁Carl	-8537
▁Based	-8538
▁chromos	-8539
▁paintings	-8540
▁democratic	-8541
▁reverse	-8542
▁inherent	-8543
▁revers	-8544
Cl	-8545
----	-8546
▁Poly	-8547
▁prime	-8548
▁prayer	-8549
▁intention	-8550
▁Hard	-8551
ivestock	-8552
rose	-8553
▁Observ	-8554
▁Stephen	-8555
▁adjacent	-8556
▁analyses	-8557
▁narrative	-8558
▁Dam	-8559
▁mothers	-8560
▁purchased	-8561
▁NY	-8562
bury	-8563
olph	-8564
▁cyl	-8565
▁contrary	-8566
▁prisoners	-8567
▁attributed	-8568
▁(8	-8569
▁maybe	-8570
▁Greece	-8571
▁preventing	-8572
▁(3)	-8573
▁aims	-8574
amps	-8575
▁Marx	-8576
▁attach	-8577
▁automatically	-8578
▁digest	-8579
▁satisfact	-8580
▁loose	-8581
▁Standards	-8582
▁Frid	-8583
▁Code	-8584
▁devast	-8585
▁lifest	-8586
▁collapse	-8587
▁incidence	-8588
▁tip	-8589
▁unlikely	-8590
▁Introduction	-8591
TH	-8592
)||	-8593
▁ho	-8594
▁Davis	-8595
▁saved	-8596
▁mammals	-8597
▁creatures	-8598
67	-8599
▁Mrs	-8600
aping	-8601
uan	-8602
▁establishing	-8603
41	-8604
▁wider	-8605
▁catalog	-8606
▁succeeded	-8607
▁horizontal	-8608
▁Tar	-8609
▁fires	-8610
▁Maryland	-8611
▁girl	-8612
non	-8613
▁ID	-8614
▁gif	-8615
▁sale	-8616
uality	-8617
▁quiet	-8618
atories	-8619
▁documented	-8620
3),	-8621
▁films	-8622
▁innovative	-8623
aneous	-8624
▁investigate	-8625
▁Drug	-8626
onal	-8627
rape	-8628
▁14,	-8629
▁sus	-8630
ropri	-8631
▁Proble	-8632
▁requiring	-8633
▁describing	-8634
▁representatives	-8635
▁Yes	-8636
obile	-8637
istant	-8638
▁Fish	-8639
▁Behav	-8640
▁permitted	-8641
▁13,	-8642
▁Cho	-8643
▁Mond	-8644
▁subsequently	-8645
▁utility	-8646
▁Dyn	-8647
▁Hig	-8648
▁cheap	-8649
▁flash	-8650
▁complement	-8651
MA	-8652
lock	-8653
▁tur	-8654
attered	-8655
▁jurisd	-8656
▁Computer	-8657
▁indirect	-8658
▁provisions	-8659
▁?	-8660
▁varying	-8661
olesterol	-8662
ques	-8663
▁winds	-8664
▁literally	-8665
▁Dun	-8666
▁bigger	-8667
▁inspir	-8668
▁myself	-8669
▁advances	-8670
icts	-8671
▁Arist	-8672
▁babies	-8673
itzer	-8674
▁Music	-8675
▁historians	-8676
▁requirement	-8677
SP	-8678
▁Olymp	-8679
▁lakes	-8680
▁Indones	-8681
ospel	-8682
▁criticism	-8683
▁Sud	-8684
▁Wed	-8685
▁Minnesota	-8686
itic	-8687
▁Lim	-8688
▁fet	-8689
ulsion	-8690
▁stake	-8691
▁dies	-8692
▁Media	-8693
▁tob	-8694
▁prox	-8695
uclear	-8696
quit	-8697
▁valley	-8698
▁Wikipedia	-8699
HD	-8700
press	-8701
irth	-8702
duate	-8703
ediate	-8704
▁Theory	-8705
▁appeal	-8706
▁strategic	-8707
aya	-8708
▁incent	-8709
▁Heritage	-8710
▁productive	-8711
How	-8712
aren	-8713
▁1920	-8714
▁fifth	-8715
▁membrane	-8716
ori	-8717
▁Arm	-8718
▁manager	-8719
▁prosper	-8720
▁annually	-8721
▁associate	-8722
▁excav	-8723
▁exclud	-8724
▁extraord	-8725
▁classified	-8726
ceans	-8727
▁organism	-8728
▁collective	-8729
▁conclusions	-8730
▁fo	-8731
▁fur	-8732
▁Rather	-8733
▁instances	-8734
▁regardless	-8735
.1	-8736
eh	-8737
▁2006,	-8738
▁returns	-8739
▁acceptable	-8740
▁empire	-8741
69	-8742
dule	-8743
urrent	-8744
▁Order	-8745
▁exercises	-8746
▁elabor	-8747
arks	-8748
▁struck	-8749
▁Cr	-8750
▁chose	-8751
▁treaty	-8752
▁nervous	-8753
▁occasionally	-8754
▁encl	-8755
▁fest	-8756
▁prey	-8757
▁dramatically	-8758
▁pairs	-8759
▁fraction	-8760
Sh	-8761
–19	-8762
▁Conc	-8763
▁Germans	-8764
▁Tay	-8765
▁cow	-8766
ysical	-8767
OD	-8768
▁comprom	-8769
▁rejected	-8770
▁reveals	-8771
▁surveys	-8772
thm	-8773
▁peer	-8774
▁chest	-8775
▁harmful	-8776
fe	-8777
▁publ	-8778
▁anten	-8779
page	-8780
▁recover	-8781
▁42	-8782
▁Son	-8783
ighth	-8784
▁galaxy	-8785
▁ethical	-8786
▁introduce	-8787
▁telescope	-8788
▁promoting	-8789
▁seriously	-8790
On	-8791
▁120	-8792
ometer	-8793
▁campus	-8794
But	-8795
▁dys	-8796
▁2005,	-8797
▁Appro	-8798
ethe	-8799
▁resc	-8800
▁interventions	-8801
ials	-8802
iscons	-8803
▁hardly	-8804
▁mile	-8805
▁Mot	-8806
▁passes	-8807
▁holid	-8808
▁argues	-8809
▁disrupt	-8810
▁Ren	-8811
▁sulf	-8812
through	-8813
▁1900	-8814
▁cook	-8815
▁manual	-8816
▁biodiversity	-8817
▁plates	-8818
▁dispers	-8819
▁protecting	-8820
rob	-8821
hedule	-8822
▁flexible	-8823
▁Democratic	-8824
aret	-8825
▁commod	-8826
▁engineer	-8827
▁Hum	-8828
▁lob	-8829
▁unn	-8830
▁suit	-8831
▁broadcast	-8832
copy	-8833
▁Fac	-8834
▁empty	-8835
▁bag	-8836
▁Samuel	-8837
Se	-8838
isconsin	-8839
▁libraries	-8840
kh	-8841
type	-8842
▁suscept	-8843
▁tobacco	-8844
▁excessive	-8845
▁cord	-8846
▁extens	-8847
azon	-8848
▁Java	-8849
▁pollut	-8850
▁arrival	-8851
▁erosion	-8852
▁affecting	-8853
Os	-8854
▁Hon	-8855
▁reservoir	-8856
▁978	-8857
▁publications	-8858
velt	-8859
▁varies	-8860
!"	-8861
▁Fer	-8862
▁reaches	-8863
When	-8864
▁2011,	-8865
▁chamber	-8866
▁decay	-8867
▁profile	-8868
▁customers	-8869
rait	-8870
▁Bal	-8871
▁spr	-8872
▁mercury	-8873
▁offices	-8874
▁recording	-8875
arn	-8876
▁kne	-8877
▁subt	-8878
▁Hence	-8879
▁£	-8880
▁unem	-8881
▁trace	-8882
da	-8883
▁Gh	-8884
▁chick	-8885
▁surrounded	-8886
eries	-8887
▁allerg	-8888
▁persu	-8889
▁smart	-8890
▁Teachers	-8891
They	-8892
▁Hindu	-8893
▁grows	-8894
▁surge	-8895
▁arranged	-8896
▁opinions	-8897
▁accomplish	-8898
▁tu	-8899
▁specialized	-8900
▁rated	-8901
duction	-8902
▁Others	-8903
▁charges	-8904
▁accomplished	-8905
▁NG	-8906
▁underground	-8907
▁perpet	-8908
▁Hu	-8909
▁Farm	-8910
▁summar	-8911
▁confront	-8912
.2	-8913
enda	-8914
▁sensor	-8915
▁withdraw	-8916
▁Jim	-8917
▁conversation	-8918
rency	-8919
64	-8920
▁Adam	-8921
▁wavel	-8922
▁Having	-8923
zes	-8924
▁aged	-8925
▁ruled	-8926
▁abilities	-8927
anol	-8928
▁tom	-8929
olves	-8930
▁pale	-8931
▁internet	-8932
▁classification	-8933
▁lifetime	-8934
IST	-8935
▁lighting	-8936
▁specimens	-8937
print	-8938
▁IT	-8939
play	-8940
oning	-8941
▁duties	-8942
▁transmitted	-8943
▁NE	-8944
▁Set	-8945
▁broke	-8946
▁finger	-8947
▁holy	-8948
▁sensitivity	-8949
▁Han	-8950
▁lecture	-8951
▁concentrated	-8952
▁simultaneously	-8953
▁wings	-8954
▁convey	-8955
▁focusing	-8956
▁geometry	-8957
▁enforcement	-8958
erts	-8959
▁Ent	-8960
▁Place	-8961
▁borrow	-8962
run	-8963
▁Line	-8964
▁tong	-8965
▁coffee	-8966
UC	-8967
▁sister	-8968
▁waiting	-8969
▁16,	-8970
world	-8971
▁Short	-8972
▁segment	-8973
▁Reading	-8974
▁sensors	-8975
mentation	-8976
▁gluc	-8977
▁dynamics	-8978
▁functioning	-8979
▁600	-8980
▁painted	-8981
▁occupation	-8982
rive	-8983
ishers	-8984
▁deleg	-8985
▁Evolution	-8986
▁Republican	-8987
▁(10	-8988
▁relax	-8989
▁strain	-8990
made	-8991
▁Tenn	-8992
▁2005.	-8993
▁pries	-8994
▁duration	-8995
reated	-8996
▁button	-8997
▁neurons	-8998
▁habitats	-8999
▁attributes	-9000
oons	-9001
▁render	-9002
▁relating	-9003
amic	-9004
▁Wisconsin	-9005
lav	-9006
▁uncom	-9007
uum	-9008
burgh	-9009
worth	-9010
▁Rest	-9011
entieth	-9012
▁deploy	-9013
▁masses	-9014
▁Teaching	-9015
osevelt	-9016
▁Physical	-9017
▁Working	-9018
▁restoration	-9019
HS	-9020
▁Hay	-9021
▁fan	-9022
iously	-9023
▁camps	-9024
▁League	-9025
85	-9026
▁Neu	-9027
adequ	-9028
▁21,	-9029
leton	-9030
antine	-9031
▁magnet	-9032
▁mature	-9033
▁households	-9034
isting	-9035
▁Process	-9036
▁protective	-9037
▁guns	-9038
▁recip	-9039
▁Represent	-9040
▁Math	-9041
▁attacked	-9042
▁medication	-9043
arth	-9044
▁Master	-9045
orne	-9046
▁tea	-9047
▁Poland	-9048
▁weakness	-9049
.]	-9050
▁restrictions	-9051
▁Five	-9052
ictions	-9053
▁philosophical	-9054
▁Alz	-9055
ocated	-9056
▁athlet	-9057
▁census	-9058
icing	-9059
▁nose	-9060
▁Buddh	-9061
▁robot	-9062
▁Rog	-9063
▁Additionally	-9064
▁convert	-9065
▁wonderful	-9066
▁kilometers	-9067
▁abol	-9068
▁herb	-9069
▁competitive	-9070
cal	-9071
▁Rus	-9072
osphere	-9073
▁Jersey	-9074
stration	-9075
▁Digital	-9076
▁vocabulary	-9077
Re	-9078
lete	-9079
▁Local	-9080
▁Script	-9081
▁30,	-9082
▁scales	-9083
▁declined	-9084
ups	-9085
▁PL	-9086
▁Nation	-9087
▁mirror	-9088
▁exhibition	-9089
▁brows	-9090
▁handling	-9091
roud	-9092
▁Trade	-9093
specific	-9094
iterranean	-9095
etric	-9096
▁Clark	-9097
▁survived	-9098
oli	-9099
▁cluster	-9100
▁sitting	-9101
▁nineteenth	-9102
▁bears	-9103
▁expectations	-9104
▁propos	-9105
▁learners	-9106
uv	-9107
fare	-9108
night	-9109
▁verb	-9110
▁guess	-9111
▁worry	-9112
▁Culture	-9113
▁diagnosed	-9114
▁qualities	-9115
▁Image	-9116
▁burned	-9117
▁analyze	-9118
▁marketing	-9119
nals	-9120
pson	-9121
▁Roosevelt	-9122
▁fra	-9123
▁2000,	-9124
▁equality	-9125
ibli	-9126
▁Moses	-9127
▁assault	-9128
▁everywhere	-9129
▁prevalence	-9130
ateral	-9131
illance	-9132
▁herself	-9133
▁1940	-9134
▁rooms	-9135
▁vot	-9136
▁Ford	-9137
▁Whether	-9138
▁treating	-9139
GE	-9140
cin	-9141
imen	-9142
▁19,	-9143
▁Species	-9144
olds	-9145
isons	-9146
▁Turn	-9147
▁medieval	-9148
▁suddenly	-9149
rue	-9150
▁Hyd	-9151
▁Unt	-9152
▁2000.	-9153
iler	-9154
▁dimension	-9155
▁challenging	-9156
▁expertise	-9157
Ad	-9158
NS	-9159
▁ranges	-9160
▁municipal	-9161
▁Club	-9162
▁Greg	-9163
urricane	-9164
▁reflects	-9165
otechnology	-9166
▁irrigation	-9167
▁orientation	-9168
▁replacement	-9169
▁Fa	-9170
▁fifty	-9171
▁governor	-9172
▁Sep	-9173
▁Chap	-9174
▁artif	-9175
▁minerals	-9176
pert	-9177
▁Nap	-9178
athan	-9179
keley	-9180
▁actively	-9181
▁entertain	-9182
ylon	-9183
▁von	-9184
PL	-9185
lem	-9186
cking	-9187
forced	-9188
▁Ray	-9189
▁arbit	-9190
▁correctly	-9191
estone	-9192
▁rainfall	-9193
▁illustrated	-9194
▁rear	-9195
▁subsc	-9196
▁bought	-9197
▁burden	-9198
▁Psychology	-9199
▁Eff	-9200
acles	-9201
▁batteries	-9202
▁historian	-9203
acle	-9204
elly	-9205
amine	-9206
▁liberty	-9207
▁approval	-9208
▁gray	-9209
▁dinosa	-9210
▁44	-9211
rium	-9212
▁totally	-9213
riend	-9214
▁Search	-9215
▁ownership	-9216
▁perfectly	-9217
agen	-9218
▁22,	-9219
green	-9220
ifier	-9221
▁Wales	-9222
osexual	-9223
▁transformation	-9224
adder	-9225
▁Call	-9226
▁shorter	-9227
▁Hop	-9228
▁trigger	-9229
copic	-9230
▁Heart	-9231
▁Friday	-9232
▁Charl	-9233
▁10,000	-9234
▁patent	-9235
▁Ancient	-9236
▁conflicts	-9237
also	-9238
1:	-9239
▁PMID	-9240
▁sheep	-9241
▁enables	-9242
▁ov	-9243
▁vice	-9244
profit	-9245
▁1992	-9246
Sp	-9247
law	-9248
▁Six	-9249
▁Grant	-9250
▁presum	-9251
▁accurately	-9252
▁performing	-9253
rub	-9254
▁Jean	-9255
▁intr	-9256
▁songs	-9257
▁Meanwhile	-9258
▁pill	-9259
holders	-9260
▁Origin	-9261
▁debris	-9262
▁Alzheimer	-9263
▁cholesterol	-9264
▁Lie	-9265
rapeut	-9266
▁possibilities	-9267
omed	-9268
▁Balt	-9269
▁Being	-9270
▁Incre	-9271
▁happening	-9272
▁disability	-9273
owa	-9274
▁export	-9275
▁restore	-9276
▁Microsoft	-9277
▁weigh	-9278
▁expanding	-9279
▁Defense	-9280
engths	-9281
▁Treatment	-9282
▁addresses	-9283
▁encounter	-9284
▁Sav	-9285
▁murder	-9286
▁partial	-9287
TM	-9288
aware	-9289
▁gate	-9290
▁Miller	-9291
▁legend	-9292
▁priest	-9293
aternal	-9294
▁plenty	-9295
▁Astronom	-9296
▁arise	-9297
▁invented	-9298
▁partially	-9299
▁Mach	-9300
advant	-9301
▁lymph	-9302
▁Matthew	-9303
hard	-9304
86	-9305
bes	-9306
amil	-9307
▁wat	-9308
▁Guard	-9309
▁Mediterranean	-9310
vol	-9311
▁250	-9312
▁enl	-9313
▁adopt	-9314
▁unity	-9315
▁intest	-9316
▁emotions	-9317
▁officially	-9318
Ed	-9319
2-	-9320
▁Alb	-9321
▁tends	-9322
▁abundant	-9323
ECT	-9324
ective	-9325
▁wooden	-9326
▁metabol	-9327
▁Proceed	-9328
▁reasoning	-9329
▁sophisticated	-9330
AF	-9331
commun	-9332
▁Applic	-9333
▁livestock	-9334
▁Bah	-9335
▁dating	-9336
▁circulation	-9337
▁Exec	-9338
▁continent	-9339
▁providers	-9340
▁rod	-9341
▁reviewed	-9342
-15	-9343
▁Trib	-9344
▁Emperor	-9345
▁Kennedy	-9346
GS	-9347
▁condem	-9348
▁driver	-9349
CI	-9350
▁radi	-9351
▁managers	-9352
yr	-9353
▁Hem	-9354
▁tone	-9355
▁exciting	-9356
▁OS	-9357
regular	-9358
▁imperial	-9359
▁controlling	-9360
rared	-9361
▁rays	-9362
▁angles	-9363
box	-9364
▁Ah	-9365
▁nort	-9366
▁Student	-9367
▁CE	-9368
oline	-9369
▁Leon	-9370
erally	-9371
▁initiatives	-9372
ni	-9373
▁CS	-9374
inth	-9375
▁Sab	-9376
▁Tib	-9377
▁stere	-9378
hyd	-9379
anium	-9380
▁posted	-9381
▁influenza	-9382
anted	-9383
terior	-9384
▁28,	-9385
▁Tradition	-9386
▁reserves	-9387
▁parliament	-9388
airy	-9389
▁Ash	-9390
▁Map	-9391
▁disag	-9392
▁cycles	-9393
Ind	-9394
▁puzz	-9395
▁barrier	-9396
▁corporate	-9397
▁accordance	-9398
▁meal	-9399
▁aside	-9400
300	-9401
▁Did	-9402
▁shr	-9403
▁Large	-9404
▁necessity	-9405
otherapy	-9406
▁systematic	-9407
▁coc	-9408
▁Beg	-9409
▁breed	-9410
▁applying	-9411
eras	-9412
▁atomic	-9413
▁deliber	-9414
▁candidates	-9415
▁operational	-9416
▁partnership	-9417
OW	-9418
▁tab	-9419
ammad	-9420
▁numer	-9421
olly	-9422
upiter	-9423
▁assumption	-9424
▁expedition	-9425
▁simulation	-9426
No	-9427
▁lock	-9428
▁semi	-9429
▁telling	-9430
efficient	-9431
▁regulatory	-9432
▁maxim	-9433
▁Clinical	-9434
▁citizen	-9435
▁reflection	-9436
unct	-9437
▁RNA	-9438
▁sail	-9439
▁zones	-9440
▁Luther	-9441
▁Turkey	-9442
▁Franklin	-9443
▁Real	-9444
▁neighb	-9445
▁Persian	-9446
orus	-9447
▁23,	-9448
▁gift	-9449
iotics	-9450
▁module	-9451
▁worker	-9452
4),	-9453
▁Gil	-9454
about	-9455
▁default	-9456
▁pregnant	-9457
▁assumptions	-9458
inery	-9459
▁diver	-9460
▁themes	-9461
nut	-9462
pdf	-9463
▁Hung	-9464
▁incred	-9465
▁predomin	-9466
.5	-9467
▁Korean	-9468
▁Ont	-9469
▁hybrid	-9470
▁sunlight	-9471
▁confident	-9472
▁Li	-9473
▁Future	-9474
▁myster	-9475
▁Military	-9476
▁paragraph	-9477
▁punishment	-9478
▁registered	-9479
ceptions	-9480
▁defeat	-9481
feed	-9482
▁Aud	-9483
▁embed	-9484
▁trading	-9485
▁molecule	-9486
▁rotation	-9487
▁execution	-9488
lights	-9489
▁arc	-9490
▁amazing	-9491
▁solving	-9492
jud	-9493
▁cuts	-9494
▁exclusively	-9495
▁ought	-9496
▁dil	-9497
▁Political	-9498
▁dominated	-9499
ón	-9500
▁Prom	-9501
▁Dougl	-9502
▁targeted	-9503
iva	-9504
▁grace	-9505
▁suggesting	-9506
▁181	-9507
ceeds	-9508
▁emission	-9509
▁abundance	-9510
▁celebrated	-9511
▁Links	-9512
▁stabil	-9513
▁Consider	-9514
▁thickness	-9515
rh	-9516
▁1993	-9517
▁cash	-9518
▁Print	-9519
▁morph	-9520
▁couldn	-9521
▁breathing	-9522
▁submitted	-9523
▁capability	-9524
▁Taylor	-9525
▁edited	-9526
▁savings	-9527
▁displays	-9528
▁conservative	-9529
▁3:	-9530
▁Walk	-9531
makers	-9532
▁Integ	-9533
▁assistant	-9534
▁listening	-9535
rators	-9536
▁Materials	-9537
chem	-9538
▁Ide	-9539
▁breaking	-9540
▁25,	-9541
▁Sher	-9542
▁contamination	-9543
▁turt	-9544
TER	-9545
ouses	-9546
▁Monday	-9547
▁mounted	-9548
▁aggressive	-9549
ashed	-9550
icking	-9551
▁consolid	-9552
▁pipe	-9553
.-	-9554
▁Week	-9555
ications	-9556
▁Mission	-9557
▁broader	-9558
▁inadequ	-9559
▁volunteers	-9560
mal	-9561
▁PDF	-9562
▁Marc	-9563
Le	-9564
▁shed	-9565
▁bearing	-9566
▁binding	-9567
▁Ger	-9568
▁Lawrence	-9569
▁physically	-9570
▁Nazi	-9571
▁weapon	-9572
▁adoption	-9573
▁comfortable	-9574
HA	-9575
▁24,	-9576
▁enhanced	-9577
▁ancestors	-9578
erness	-9579
▁width	-9580
jo	-9581
iph	-9582
▁beach	-9583
▁wouldn	-9584
▁Index	-9585
▁Nether	-9586
ilton	-9587
▁blacks	-9588
▁tomb	-9589
▁Paper	-9590
▁proport	-9591
▁settlers	-9592
97	-9593
▁Connect	-9594
▁arrangement	-9595
eli	-9596
date	-9597
reshold	-9598
▁relate	-9599
▁altered	-9600
▁awarded	-9601
▁reproduction	-9602
ema	-9603
▁Transport	-9604
▁hospitals	-9605
▁surprising	-9606
▁CT	-9607
▁Jack	-9608
▁indicating	-9609
emeter	-9610
▁Proceedings	-9611
▁barriers	-9612
▁Louisiana	-9613
rology	-9614
▁coinc	-9615
heastern	-9616
▁Commons	-9617
iro	-9618
▁traits	-9619
▁Jupiter	-9620
▁consumed	-9621
imm	-9622
▁1000	-9623
▁prol	-9624
▁torn	-9625
▁Philosophy	-9626
psy	-9627
▁Keep	-9628
vy	-9629
▁Ins	-9630
economic	-9631
96	-9632
actic	-9633
▁ease	-9634
▁fing	-9635
▁2004.	-9636
▁Examples	-9637
idae	-9638
otan	-9639
▁NOT	-9640
▁rent	-9641
▁freely	-9642
▁surprise	-9643
▁developmental	-9644
etically	-9645
▁schedule	-9646
pent	-9647
plate	-9648
▁virtue	-9649
▁confusion	-9650
▁Wars	-9651
▁disput	-9652
restrial	-9653
▁attractive	-9654
▁fate	-9655
▁Fisher	-9656
▁Captain	-9657
▁scenario	-9658
wa	-9659
▁joy	-9660
Figure	-9661
▁Chemical	-9662
▁preparing	-9663
igm	-9664
▁Play	-9665
▁coral	-9666
▁distances	-9667
▁endangered	-9668
zyme	-9669
88	-9670
eav	-9671
▁Ni	-9672
izers	-9673
▁Rand	-9674
▁hopes	-9675
▁Number	-9676
▁breath	-9677
▁factory	-9678
%,	-9679
▁Lt	-9680
inch	-9681
▁Cape	-9682
insula	-9683
▁infinite	-9684
door	-9685
▁Jon	-9686
▁span	-9687
▁2004,	-9688
ctu	-9689
▁Pap	-9690
▁alternatives	-9691
▁Face	-9692
▁panels	-9693
▁preserv	-9694
▁adaptation	-9695
▁bat	-9696
▁edges	-9697
▁diagram	-9698
▁minimal	-9699
▁admitted	-9700
role	-9701
child	-9702
▁Francis	-9703
▁enemies	-9704
▁brothers	-9705
▁sustainability	-9706
▁Ten	-9707
▁tribe	-9708
▁extinction	-9709
▁rac	-9710
gebra	-9711
ranch	-9712
▁enjoyed	-9713
▁Case	-9714
▁Support	-9715
▁passion	-9716
▁assessments	-9717
▁Lind	-9718
▁shallow	-9719
▁rom	-9720
▁fatal	-9721
instein	-9722
pi	-9723
▁Which	-9724
▁fiction	-9725
To	-9726
ods	-9727
ipher	-9728
▁obsc	-9729
▁spray	-9730
isphere	-9731
▁alleged	-9732
▁entrance	-9733
▁newspapers	-9734
▁reputation	-9735
▁globe	-9736
istically	-9737
▁Prim	-9738
▁Often	-9739
▁overview	-9740
ela	-9741
▁NS	-9742
▁gran	-9743
▁oxid	-9744
▁pace	-9745
▁applies	-9746
fold	-9747
▁Jun	-9748
▁2003,	-9749
▁tanks	-9750
▁Altern	-9751
▁inflation	-9752
▁Arthur	-9753
▁precipitation	-9754
RS	-9755
▁46	-9756
▁obviously	-9757
**	-9758
1-	-9759
▁grad	-9760
▁recall	-9761
▁saving	-9762
▁preservation	-9763
▁lip	-9764
sequently	-9765
▁controversial	-9766
inent	-9767
▁irre	-9768
▁Statistics	-9769
aft	-9770
▁vaccines	-9771
▁absolutely	-9772
▁fault	-9773
▁membership	-9774
elect	-9775
▁Trust	-9776
▁Sac	-9777
▁calc	-9778
▁Census	-9779
igration	-9780
▁protest	-9781
▁algorithm	-9782
▁Death	-9783
▁empir	-9784
▁extraordinary	-9785
▁bull	-9786
▁Front	-9787
▁blank	-9788
▁tension	-9789
▁supplied	-9790
▁inflammation	-9791
▁13.	-9792
▁Product	-9793
▁discharge	-9794
▁integrity	-9795
aning	-9796
▁wise	-9797
000.	-9798
▁pine	-9799
▁Photo	-9800
▁imagination	-9801
▁FDA	-9802
▁160	-9803
▁sheets	-9804
▁UV	-9805
▁forty	-9806
▁casual	-9807
▁Archives	-9808
▁analyzed	-9809
▁container	-9810
▁1991	-9811
▁2003.	-9812
▁caps	-9813
▁puts	-9814
▁retain	-9815
▁cancers	-9816
▁Sa	-9817
▁anat	-9818
▁coat	-9819
▁inequ	-9820
▁explos	-9821
who	-9822
▁pH	-9823
orer	-9824
▁Put	-9825
▁bom	-9826
▁oceans	-9827
▁institutional	-9828
▁kg	-9829
▁alarm	-9830
▁cable	-9831
▁ending	-9832
▁Cra	-9833
▁Had	-9834
▁wages	-9835
▁producers	-9836
▁possession	-9837
▁controversy	-9838
▁Enter	-9839
▁sectors	-9840
▁Educational	-9841
azz	-9842
▁Allah	-9843
▁Philip	-9844
▁respiratory	-9845
imony	-9846
▁consent	-9847
▁malaria	-9848
▁republic	-9849
esty	-9850
▁Ark	-9851
▁Nep	-9852
▁PhD	-9853
▁fles	-9854
mented	-9855
▁descriptions	-9856
ja	-9857
rowth	-9858
▁sphere	-9859
ideo	-9860
▁Opp	-9861
formed	-9862
▁crimes	-9863
▁favour	-9864
▁disadvant	-9865
▁divisions	-9866
▁182	-9867
▁circles	-9868
▁Interest	-9869
▁commander	-9870
▁physicians	-9871
▁Corporation	-9872
▁revolutionary	-9873
▁Path	-9874
▁verse	-9875
▁lifestyle	-9876
▁definitions	-9877
arians	-9878
▁asthma	-9879
▁plasma	-9880
▁considerably	-9881
▁Polish	-9882
▁Publishing	-9883
▁meaningful	-9884
alo	-9885
▁sew	-9886
▁url	-9887
▁bell	-9888
▁sending	-9889
▁substantially	-9890
▁GM	-9891
▁Mes	-9892
▁currency	-9893
▁workshop	-9894
▁Thanks	-9895
▁mapping	-9896
▁Afghanistan	-9897
▁chron	-9898
▁grains	-9899
▁Individual	-9900
▁spir	-9901
▁vibr	-9902
▁discl	-9903
▁clothes	-9904
▁essence	-9905
▁gardens	-9906
▁differently	-9907
▁reproductive	-9908
▁fleet	-9909
▁noticed	-9910
▁telephone	-9911
▁tap	-9912
▁Duke	-9913
▁perf	-9914
▁doors	-9915
Pro	-9916
▁Amazon	-9917
▁counties	-9918
eren	-9919
▁Barb	-9920
▁forb	-9921
▁ozone	-9922
▁prosec	-9923
▁Affairs	-9924
▁transformed	-9925
▁wage	-9926
govern	-9927
▁package	-9928
▁circular	-9929
▁protocol	-9930
▁ears	-9931
▁kidney	-9932
rible	-9933
▁carb	-9934
▁enact	-9935
▁Freder	-9936
▁tremend	-9937
▁removing	-9938
▁convention	-9939
▁intelligent	-9940
iy	-9941
ctors	-9942
itches	-9943
▁Command	-9944
▁Win	-9945
▁2002.	-9946
ridges	-9947
▁gains	-9948
▁Berkeley	-9949
omon	-9950
▁FIG	-9951
▁Story	-9952
▁sodium	-9953
▁returning	-9954
▁sequences	-9955
ructive	-9956
▁namely	-9957
▁Contact	-9958
▁reinforce	-9959
▁satellites	-9960
▁47	-9961
▁Vi	-9962
pany	-9963
▁Bru	-9964
▁losing	-9965
▁prevented	-9966
TA	-9967
rec	-9968
omal	-9969
▁Staff	-9970
▁Netherlands	-9971
▁configuration	-9972
enna	-9973
▁FOR	-9974
▁educated	-9975
▁combine	-9976
▁dismiss	-9977
▁ES	-9978
ocket	-9979
▁Reserve	-9980
▁compass	-9981
▁sustained	-9982
▁Ty	-9983
otten	-9984
▁Watch	-9985
ollo	-9986
onald	-9987
▁Hispan	-9988
▁estate	-9989
▁equations	-9990
▁practition	-9991
seud	-9992
▁rib	-9993
▁cooking	-9994
All	-9995
▁Mu	-9996
▁177	-9997
▁happiness	-9998
▁discoveries	-9999
▁Try	-10000
▁mira	-10001
▁crust	-10002
RL	-10003
▁pleasure	-10004
▁Due	-10005
▁surviv	-10006
▁Edition	-10007
apped	-10008
▁Until	-10009
▁kings	-10010
▁elevated	-10011
▁nutrient	-10012
▁geographic	-10013
gged	-10014
idge	-10015
▁cats	-10016
▁Arabic	-10017
-11	-10018
ocent	-10019
otypes	-10020
▁honey	-10021
▁radar	-10022
▁departments	-10023
eld	-10024
▁PA	-10025
plex	-10026
▁Recent	-10027
▁speakers	-10028
mony	-10029
▁Anne	-10030
▁genus	-10031
▁barrel	-10032
▁implies	-10033
▁restaur	-10034
▁evaluated	-10035
So	-10036
▁800	-10037
▁Level	-10038
▁Remember	-10039
▁cellular	-10040
▁contributing	-10041
osity	-10042
▁illum	-10043
▁addressing	-10044
orient	-10045
▁keeps	-10046
▁Freedom	-10047
▁43	-10048
▁bron	-10049
▁reson	-10050
▁tumors	-10051
▁receives	-10052
▁watching	-10053
▁disappear	-10054
Con	-10055
▁abroad	-10056
▁Buddhist	-10057
▁Nobel	-10058
▁develops	-10059
▁friendly	-10060
▁consensus	-10061
▁2001.	-10062
▁14.	-10063
▁pec	-10064
agger	-10065
▁Cond	-10066
▁frust	-10067
▁chapters	-10068
▁equipped	-10069
▁Mind	-10070
▁tick	-10071
▁Tibet	-10072
▁basin	-10073
▁planted	-10074
▁distinctive	-10075
.(	-10076
rank	-10077
▁Adams	-10078
▁calculate	-10079
▁Self	-10080
▁assets	-10081
▁influential	-10082
ronaut	-10083
▁executed	-10084
▁isolation	-10085
▁deer	-10086
▁fallen	-10087
▁matrix	-10088
▁initiated	-10089
▁adolescents	-10090
▁uncertainty	-10091
▁pel	-10092
▁Garden	-10093
▁acquis	-10094
redit	-10095
▁paying	-10096
eman	-10097
▁Argent	-10098
▁Sweden	-10099
▁recycling	-10100
▁bind	-10101
▁spots	-10102
▁drivers	-10103
▁colleges	-10104
▁Mountains	-10105
UM	-10106
▁Aristot	-10107
▁mosquit	-10108
▁revenue	-10109
nings	-10110
▁relie	-10111
emed	-10112
▁Site	-10113
▁Carib	-10114
CM	-10115
plane	-10116
▁sacrifice	-10117
▁MP	-10118
▁Hot	-10119
▁completion	-10120
▁participating	-10121
▁Vit	-10122
peare	-10123
▁loved	-10124
▁trail	-10125
▁alumin	-10126
▁attain	-10127
zym	-10128
iley	-10129
usive	-10130
▁interpreted	-10131
irs	-10132
▁ignor	-10133
▁wells	-10134
▁Archae	-10135
▁colored	-10136
▁emotion	-10137
▁sampling	-10138
▁illustrate	-10139
strate	-10140
▁patri	-10141
▁tower	-10142
ountered	-10143
▁calendar	-10144
▁bacterial	-10145
▁territories	-10146
▁steady	-10147
ropolitan	-10148
▁monument	-10149
▁primitive	-10150
1/	-10151
sun	-10152
iscal	-10153
▁mart	-10154
▁naval	-10155
▁Mother	-10156
▁impair	-10157
▁termin	-10158
▁determination	-10159
▁Utah	-10160
▁bulk	-10161
▁brill	-10162
▁throw	-10163
▁orange	-10164
▁storms	-10165
▁register	-10166
▁Hunt	-10167
▁cure	-10168
asures	-10169
engers	-10170
▁2001,	-10171
▁traditionally	-10172
uty	-10173
▁27,	-10174
front	-10175
▁insu	-10176
▁ruling	-10177
▁notable	-10178
eared	-10179
▁aging	-10180
▁codes	-10181
▁Collection	-10182
▁legislative	-10183
▁independently	-10184
BI	-10185
di	-10186
▁mood	-10187
ushing	-10188
▁rocket	-10189
▁railroad	-10190
▁suggestions	-10191
sex	-10192
▁Chile	-10193
▁bonds	-10194
▁repeat	-10195
▁yields	-10196
▁Sustain	-10197
▁insulin	-10198
▁surre	-10199
amma	-10200
▁Prime	-10201
▁columns	-10202
akespeare	-10203
▁haven	-10204
▁Foreign	-10205
▁Training	-10206
▁calculations	-10207
▁encountered	-10208
yan	-10209
arer	-10210
▁managing	-10211
inton	-10212
▁hung	-10213
▁politicians	-10214
▁threshold	-10215
Be	-10216
atre	-10217
five	-10218
▁64	-10219
▁scr	-10220
▁Vers	-10221
dep	-10222
itate	-10223
▁Tool	-10224
illery	-10225
▁Satur	-10226
▁Romans	-10227
▁cameras	-10228
▁carries	-10229
▁enabled	-10230
▁basically	-10231
▁SO	-10232
▁progressive	-10233
▁mold	-10234
▁Animal	-10235
At	-10236
▁Earl	-10237
▁brains	-10238
▁processed	-10239
▁relatives	-10240
63	-10241
terly	-10242
ulates	-10243
▁Newton	-10244
▁Ele	-10245
▁wed	-10246
onent	-10247
▁divers	-10248
▁safely	-10249
▁arrested	-10250
▁astronomers	-10251
▁Lar	-10252
▁Writing	-10253
▁Behavior	-10254
▁featured	-10255
▁incorporate	-10256
akh	-10257
aver	-10258
oves	-10259
arded	-10260
sters	-10261
▁videos	-10262
▁Stone	-10263
▁selling	-10264
▁demonstration	-10265
DR	-10266
igate	-10267
▁sket	-10268
abling	-10269
▁routes	-10270
▁1.5	-10271
▁Bow	-10272
▁Moh	-10273
▁aver	-10274
▁placing	-10275
▁Orthodox	-10276
▁consisted	-10277
▁sentences	-10278
▁contaminated	-10279
▁FA	-10280
▁HTML	-10281
▁worn	-10282
▁Series	-10283
▁artistic	-10284
even	-10285
omer	-10286
hedral	-10287
▁projected	-10288
abs	-10289
▁impression	-10290
▁^	-10291
▁Pow	-10292
▁align	-10293
▁aggreg	-10294
▁acceptance	-10295
That	-10296
cult	-10297
actions	-10298
▁Certain	-10299
stic	-10300
eland	-10301
▁hills	-10302
▁diagnostic	-10303
opl	-10304
berry	-10305
▁fart	-10306
▁gest	-10307
▁Electric	-10308
▁defeated	-10309
▁exploring	-10310
▁ingredients	-10311
▁denied	-10312
▁portray	-10313
▁portions	-10314
▁immigration	-10315
▁sad	-10316
grade	-10317
▁cave	-10318
▁2002,	-10319
oga	-10320
▁Jane	-10321
▁pushed	-10322
▁founder	-10323
▁wearing	-10324
▁outbreak	-10325
warf	-10326
▁26,	-10327
▁sel	-10328
▁imposed	-10329
▁Eval	-10330
▁Return	-10331
▁encouraging	-10332
▁orn	-10333
compass	-10334
▁Treaty	-10335
▁clusters	-10336
▁disposal	-10337
10,	-10338
▁(7	-10339
▁dish	-10340
▁femin	-10341
▁dental	-10342
▁accompany	-10343
▁implementing	-10344
irus	-10345
uine	-10346
▁0.0	-10347
ritis	-10348
▁tied	-10349
▁heter	-10350
▁speeds	-10351
▁tongue	-10352
▁collecting	-10353
▁constitute	-10354
ko	-10355
▁49	-10356
essee	-10357
▁Buddha	-10358
▁transplant	-10359
▁Qur	-10360
▁Ult	-10361
uster	-10362
▁surg	-10363
▁bands	-10364
▁harder	-10365
▁irregular	-10366
▁ol	-10367
▁cycl	-10368
▁unto	-10369
▁Clear	-10370
▁expend	-10371
▁pursue	-10372
▁reserve	-10373
▁hazardous	-10374
▁(9	-10375
neum	-10376
iotic	-10377
▁acquire	-10378
▁programmes	-10379
▁ON	-10380
▁Muh	-10381
▁peers	-10382
▁glucose	-10383
▁mystery	-10384
▁twentieth	-10385
▁Nort	-10386
health	-10387
▁alien	-10388
▁healing	-10389
▁hormone	-10390
acher	-10391
icked	-10392
neg	-10393
▁Israeli	-10394
▁Available	-10395
▁conceptual	-10396
▁indicators	-10397
▁Boy	-10398
▁insert	-10399
▁cleaning	-10400
ket	-10401
▁41	-10402
▁Alf	-10403
ocaust	-10404
▁Brain	-10405
▁meter	-10406
▁extends	-10407
oen	-10408
aton	-10409
▁exch	-10410
▁solely	-10411
original	-10412
▁Sn	-10413
heres	-10414
▁Tues	-10415
▁surprised	-10416
!!	-10417
chron	-10418
▁Nich	-10419
▁Event	-10420
range	-10421
▁Fram	-10422
▁poorly	-10423
▁shield	-10424
▁distribut	-10425
ashes	-10426
▁Cold	-10427
▁Fall	-10428
▁situated	-10429
odge	-10430
▁Cit	-10431
▁divide	-10432
▁feather	-10433
▁recovered	-10434
▁CF	-10435
▁Mit	-10436
▁Diet	-10437
▁Should	-10438
lastname	-10439
▁extending	-10440
▁frequencies	-10441
▁85	-10442
▁Ak	-10443
▁seal	-10444
▁Executive	-10445
▁mutations	-10446
▁conducting	-10447
▁administered	-10448
:00	-10449
fast	-10450
rapeutic	-10451
▁Ontario	-10452
mers	-10453
▁Iowa	-10454
▁(2000	-10455
▁Diego	-10456
▁Years	-10457
▁rings	-10458
▁ignored	-10459
▁Victoria	-10460
▁Shakespeare	-10461
stra	-10462
▁Ara	-10463
▁Oil	-10464
▁loop	-10465
▁ster	-10466
▁symm	-10467
unning	-10468
▁overs	-10469
▁visits	-10470
▁planting	-10471
▁residential	-10472
dess	-10473
acular	-10474
ivities	-10475
▁methane	-10476
▁Dom	-10477
▁gentle	-10478
▁grants	-10479
▁Kentucky	-10480
▁Rose	-10481
ensing	-10482
▁Bio	-10483
▁pix	-10484
▁tape	-10485
roleum	-10486
▁timber	-10487
▁restored	-10488
▁vacuum	-10489
▁GDP	-10490
▁McG	-10491
▁pap	-10492
▁accused	-10493
ciplinary	-10494
annel	-10495
author	-10496
▁skull	-10497
▁Iron	-10498
▁Thurs	-10499
▁ceremon	-10500
▁consistently	-10501
▁58	-10502
acon	-10503
▁atom	-10504
▁metap	-10505
▁associations	-10506
▁shelter	-10507
▁wetlands	-10508
▁Discuss	-10509
▁dietary	-10510
▁Architect	-10511
▁radioactive	-10512
natural	-10513
▁Industrial	-10514
arest	-10515
▁1989	-10516
▁feas	-10517
▁dated	-10518
▁Reference	-10519
van	-10520
▁AB	-10521
▁Whit	-10522
▁thro	-10523
▁absorbed	-10524
▁guarantee	-10525
▁Marg	-10526
400	-10527
▁rh	-10528
arse	-10529
▁ham	-10530
▁march	-10531
▁behalf	-10532
▁endeav	-10533
ERS	-10534
▁horn	-10535
▁perce	-10536
▁Wy	-10537
▁Bol	-10538
▁Unit	-10539
▁Saturn	-10540
▁journals	-10541
lyn	-10542
▁synthesis	-10543
▁investigations	-10544
▁Prize	-10545
▁Radio	-10546
▁drives	-10547
▁sessions	-10548
▁Knowledge	-10549
▁achieving	-10550
▁hill	-10551
▁boats	-10552
▁doses	-10553
▁parks	-10554
▁conclude	-10555
angular	-10556
▁borders	-10557
▁license	-10558
▁priests	-10559
this	-10560
▁Tan	-10561
▁Imper	-10562
▁posts	-10563
▁Proper	-10564
▁Amendment	-10565
▁Understanding	-10566
Hz	-10567
▁Comb	-10568
▁critics	-10569
asa	-10570
▁Zh	-10571
▁Prior	-10572
▁Living	-10573
▁Confederate	-10574
▁Academic	-10575
▁Universe	-10576
▁popularity	-10577
eous	-10578
▁firms	-10579
▁catast	-10580
▁epidem	-10581
expected	-10582
▁suicide	-10583
▁participated	-10584
▁Cook	-10585
▁Intellig	-10586
atin	-10587
▁amongst	-10588
▁ED	-10589
▁Num	-10590
storm	-10591
▁folk	-10592
rell	-10593
▁gly	-10594
▁tag	-10595
▁gast	-10596
▁bases	-10597
▁lungs	-10598
▁Hawaii	-10599
▁Cultural	-10600
▁convinced	-10601
▁Regional	-10602
rage	-10603
▁rats	-10604
iatric	-10605
▁irrit	-10606
▁prophe	-10607
▁balanced	-10608
▁Mathematics	-10609
▁mud	-10610
hematic	-10611
▁whenever	-10612
▁Tennessee	-10613
▁generating	-10614
▁groundwater	-10615
▁por	-10616
upp	-10617
▁Hal	-10618
gener	-10619
scill	-10620
▁Democr	-10621
▁somewhere	-10622
ricks	-10623
imedia	-10624
▁Wednes	-10625
oil	-10626
▁Rod	-10627
ulous	-10628
▁Pear	-10629
▁tack	-10630
▁Chall	-10631
▁Resource	-10632
▁Communist	-10633
▁Protestant	-10634
aug	-10635
ilib	-10636
rise	-10637
ysics	-10638
▁Morm	-10639
endix	-10640
▁pond	-10641
▁smell	-10642
▁fibers	-10643
▁constitu	-10644
▁elevation	-10645
May	-10646
▁Mand	-10647
▁Pier	-10648
▁Apple	-10649
▁crack	-10650
▁intra	-10651
graduate	-10652
▁compact	-10653
▁Scottish	-10654
▁installation	-10655
▁3)	-10656
▁dow	-10657
abama	-10658
▁Additional	-10659
▁considerations	-10660
onto	-10661
▁fled	-10662
▁seasonal	-10663
▁comparable	-10664
▁constraints	-10665
oving	-10666
▁affirm	-10667
▁civilian	-10668
▁traveled	-10669
ogs	-10670
uting	-10671
▁dign	-10672
▁judges	-10673
▁expense	-10674
▁explosion	-10675
erald	-10676
▁Very	-10677
iative	-10678
▁anger	-10679
▁memories	-10680
▁severely	-10681
▁OR	-10682
▁UC	-10683
▁bits	-10684
atible	-10685
▁aspir	-10686
▁dozen	-10687
▁instant	-10688
▁embedded	-10689
rip	-10690
▁insights	-10691
▁volcanic	-10692
▁Caribbean	-10693
four	-10694
▁tang	-10695
▁tracks	-10696
▁Conserv	-10697
▁Population	-10698
▁Period	-10699
▁breaks	-10700
▁scenes	-10701
▁Advanced	-10702
▁Nutrition	-10703
My	-10704
▁Bh	-10705
ellar	-10706
▁1800	-10707
▁Movement	-10708
Pl	-10709
▁100,000	-10710
romagnetic	-10711
bow	-10712
esy	-10713
▁reci	-10714
▁calories	-10715
▁Published	-10716
▁repeatedly	-10717
▁Has	-10718
▁arrive	-10719
▁29,	-10720
▁Indiana	-10721
▁invited	-10722
▁referring	-10723
QL	-10724
hea	-10725
plus	-10726
▁CON	-10727
orious	-10728
▁cloth	-10729
▁Tuesday	-10730
▁gathering	-10731
▁Publ	-10732
▁religions	-10733
▁surveillance	-10734
oler	-10735
▁Bridge	-10736
▁conform	-10737
▁secular	-10738
▁authentic	-10739
▁Flow	-10740
▁Daily	-10741
▁traveling	-10742
▁inquiry	-10743
▁dialogue	-10744
▁Indonesia	-10745
▁Dor	-10746
▁MIT	-10747
▁earned	-10748
▁shadow	-10749
olis	-10750
▁Tele	-10751
▁lunar	-10752
▁currents	-10753
▁fisheries	-10754
▁enterprise	-10755
▁correlation	-10756
10.	-10757
▁salmon	-10758
▁weaken	-10759
rological	-10760
▁graphics	-10761
▁counterpart	-10762
▁complications	-10763
58	-10764
oub	-10765
iano	-10766
▁bees	-10767
▁thou	-10768
▁makers	-10769
▁reviews	-10770
▁Commer	-10771
▁fant	-10772
imeter	-10773
▁flexibility	-10774
▁Upper	-10775
▁scarce	-10776
▁Hamilton	-10777
▁AF	-10778
▁Ages	-10779
esthetic	-10780
▁attracted	-10781
▁comparing	-10782
▁watershed	-10783
comp	-10784
thal	-10785
▁Hell	-10786
▁Quality	-10787
▁Practice	-10788
▁architectural	-10789
▁Rout	-10790
▁artifacts	-10791
▁ren	-10792
▁belt	-10793
▁biomass	-10794
▁minimize	-10795
elson	-10796
▁Annual	-10797
▁rememb	-10798
▁Stanford	-10799
▁prescribed	-10800
▁dying	-10801
▁strand	-10802
copes	-10803
▁Ross	-10804
▁glob	-10805
▁2012,	-10806
▁Blood	-10807
▁eleph	-10808
reprene	-10809
▁Carbon	-10810
▁defines	-10811
▁triangle	-10812
▁resistant	-10813
▁EN	-10814
agle	-10815
▁urg	-10816
▁Date	-10817
▁Soci	-10818
▁Anton	-10819
▁Apollo	-10820
▁phases	-10821
▁strains	-10822
▁vapor	-10823
emetery	-10824
▁lift	-10825
▁Basic	-10826
▁Venus	-10827
▁jurisdiction	-10828
▁Pit	-10829
▁bore	-10830
▁powder	-10831
iversary	-10832
▁pressures	-10833
▁ric	-10834
▁bapt	-10835
▁noun	-10836
▁Nuclear	-10837
▁drawings	-10838
arios	-10839
school	-10840
▁mainstream	-10841
▁unemployment	-10842
requ	-10843
▁Luc	-10844
ogene	-10845
▁Bapt	-10846
▁1999,	-10847
▁courage	-10848
▁fascinating	-10849
▁Roc	-10850
▁quad	-10851
spring	-10852
▁valve	-10853
▁whites	-10854
▁Magazine	-10855
▁provider	-10856
▁definitely	-10857
TP	-10858
ega	-10859
human	-10860
iolet	-10861
▁spite	-10862
▁golden	-10863
▁speaker	-10864
▁precision	-10865
▁Kat	-10866
▁phon	-10867
6),	-10868
conn	-10869
ordan	-10870
▁pitch	-10871
▁Douglas	-10872
▁shortly	-10873
▁overwhelming	-10874
62	-10875
oa	-10876
PDF	-10877
▁Thursday	-10878
pa	-10879
▁lying	-10880
▁socio	-10881
▁thinks	-10882
velation	-10883
iovascular	-10884
▁Cab	-10885
▁explored	-10886
▁Benj	-10887
▁Cass	-10888
▁Centers	-10889
▁announce	-10890
▁desirable	-10891
▁absorption	-10892
-17	-10893
▁Howard	-10894
▁residence	-10895
▁PR	-10896
illy	-10897
klah	-10898
olas	-10899
▁Joh	-10900
▁reforms	-10901
acre	-10902
▁emerge	-10903
▁expressions	-10904
ogens	-10905
ulative	-10906
▁scattered	-10907
▁voluntary	-10908
yo	-10909
▁Allen	-10910
▁combust	-10911
▁revised	-10912
▁confused	-10913
▁Relations	-10914
▁conjunction	-10915
held	-10916
▁Avoid	-10917
▁Wednesday	-10918
▁healthcare	-10919
uity	-10920
▁Les	-10921
cence	-10922
thood	-10923
▁dent	-10924
▁loan	-10925
▁sufficiently	-10926
▁2-	-10927
▁Az	-10928
▁Amb	-10929
▁Core	-10930
itational	-10931
▁Historic	-10932
▁integral	-10933
▁promised	-10934
▁antibiotics	-10935
grim	-10936
▁Hans	-10937
▁1999.	-10938
▁Alabama	-10939
▁regulate	-10940
▁promising	-10941
ikh	-10942
bage	-10943
phal	-10944
▁clients	-10945
▁gear	-10946
▁onset	-10947
▁persec	-10948
▁%	-10949
ilst	-10950
▁alike	-10951
▁neural	-10952
▁refere	-10953
▁aquatic	-10954
▁impressive	-10955
▁drew	-10956
▁Basin	-10957
▁Anderson	-10958
▁encompass	-10959
▁conception	-10960
▁headed	-10961
ographer	-10962
▁forever	-10963
▁mechanics	-10964
▁responded	-10965
VD	-10966
▁$2	-10967
▁Walter	-10968
▁genuine	-10969
▁visiting	-10970
▁Best	-10971
▁plug	-10972
▁amino	-10973
▁presidential	-10974
uliar	-10975
inning	-10976
▁defining	-10977
▁convenient	-10978
arity	-10979
oided	-10980
▁Rena	-10981
▁unpre	-10982
▁proclaim	-10983
▁qualified	-10984
▁investigated	-10985
GB	-10986
▁bias	-10987
▁notably	-10988
unes	-10989
energy	-10990
▁whales	-10991
Our	-10992
▁4:	-10993
uese	-10994
shore	-10995
▁fluor	-10996
▁disciplines	-10997
alks	-10998
pton	-10999
▁overt	-11000
▁senses	-11001
▁retreat	-11002
▁answered	-11003
▁provinces	-11004
▁interviews	-11005
▁Hun	-11006
▁upl	-11007
▁Making	-11008
function	-11009
▁scheduled	-11010
fly	-11011
▁Bishop	-11012
▁Visual	-11013
▁synthetic	-11014
▁Bob	-11015
▁overse	-11016
▁embod	-11017
▁dollar	-11018
▁attempting	-11019
▁undertaken	-11020
▁archaeological	-11021
onymous	-11022
▁ensuring	-11023
▁intermediate	-11024
▁deriv	-11025
▁flesh	-11026
▁mines	-11027
▁Palestine	-11028
cow	-11029
▁mi	-11030
▁Hart	-11031
▁engaging	-11032
▁severity	-11033
▁applicable	-11034
isl	-11035
▁biof	-11036
▁chip	-11037
▁desk	-11038
▁mini	-11039
▁intensive	-11040
▁acquisition	-11041
high	-11042
sized	-11043
▁crossing	-11044
▁economies	-11045
59	-11046
▁57	-11047
▁tubes	-11048
▁briefly	-11049
▁grammar	-11050
hops	-11051
▁Ban	-11052
▁Bon	-11053
▁Priv	-11054
▁beet	-11055
▁dual	-11056
▁Maine	-11057
▁memor	-11058
develop	-11059
▁finish	-11060
▁Different	-11061
▁examining	-11062
▁pesticides	-11063
iki	-11064
hour	-11065
eling	-11066
▁Territ	-11067
▁Yellow	-11068
▁fragments	-11069
▁»	-11070
600	-11071
▁stack	-11072
isations	-11073
▁searching	-11074
▁acknowledged	-11075
▁Cuba	-11076
ternoon	-11077
▁avoided	-11078
▁chim	-11079
▁Declar	-11080
▁prelim	-11081
▁lasting	-11082
▁wounded	-11083
▁1998.	-11084
▁Opt	-11085
▁intu	-11086
ocolate	-11087
▁rhythm	-11088
▁subtle	-11089
▁deficiency	-11090
87	-11091
two	-11092
▁1988	-11093
▁Belg	-11094
orship	-11095
▁boxes	-11096
klahoma	-11097
▁Collect	-11098
▁refugees	-11099
▁tremendous	-11100
▁predictions	-11101
▁Pas	-11102
▁Rub	-11103
▁sle	-11104
▁vic	-11105
eterm	-11106
▁timing	-11107
▁proposals	-11108
igue	-11109
▁2,000	-11110
▁fired	-11111
▁grave	-11112
▁enzyme	-11113
▁fossils	-11114
▁commands	-11115
▁databases	-11116
▁Ball	-11117
▁Genesis	-11118
▁crystal	-11119
▁elderly	-11120
▁motivation	-11121
ESS	-11122
▁WW	-11123
▁soy	-11124
wealth	-11125
▁infectious	-11126
ref	-11127
▁auto	-11128
▁viewing	-11129
▁spreading	-11130
▁50%	-11131
▁Tax	-11132
▁locally	-11133
▁assignment	-11134
▁navigation	-11135
uct	-11136
▁VI	-11137
▁Kim	-11138
▁unions	-11139
▁consume	-11140
agu	-11141
▁Uk	-11142
▁urine	-11143
▁appreciate	-11144
▁electronics	-11145
▁variability	-11146
▁insufficient	-11147
nia	-11148
▁Ps	-11149
▁Moore	-11150
▁alleg	-11151
elihood	-11152
etheless	-11153
▁injured	-11154
▁stretch	-11155
▁Buddhism	-11156
▁Od	-11157
isible	-11158
▁Armen	-11159
▁poems	-11160
▁Wright	-11161
ibration	-11162
▁vegetable	-11163
▁declar	-11164
▁mutual	-11165
▁hazards	-11166
▁Technical	-11167
▁suspected	-11168
icut	-11169
▁loyal	-11170
▁segments	-11171
▁neighbors	-11172
Cs	-11173
ativity	-11174
▁absent	-11175
▁intens	-11176
▁relates	-11177
▁welcome	-11178
ez	-11179
▁Hou	-11180
▁Agricultural	-11181
▁strat	-11182
▁viral	-11183
ilateral	-11184
▁Teacher	-11185
▁inadequate	-11186
▁occurrence	-11187
aman	-11188
achel	-11189
▁essays	-11190
▁promoted	-11191
fire	-11192
▁Aqu	-11193
▁tribal	-11194
sl	-11195
emor	-11196
▁Box	-11197
▁hang	-11198
▁Biological	-11199
▁nodes	-11200
▁searc	-11201
▁legacy	-11202
▁planes	-11203
eded	-11204
iang	-11205
▁10%	-11206
▁elig	-11207
iosity	-11208
▁Lands	-11209
▁Currently	-11210
▁discusses	-11211
▁respective	-11212
▁Nan	-11213
▁Help	-11214
formance	-11215
▁chances	-11216
▁judicial	-11217
▁operators	-11218
▁susceptible	-11219
▁bes	-11220
▁(196	-11221
▁sperm	-11222
▁Golden	-11223
▁founding	-11224
▁Pediatric	-11225
▁explaining	-11226
3:	-11227
▁slope	-11228
2:	-11229
▁Ku	-11230
▁deple	-11231
▁thrown	-11232
▁fingers	-11233
▁interference	-11234
erb	-11235
pow	-11236
agog	-11237
▁Adm	-11238
▁feels	-11239
▁Results	-11240
▁retained	-11241
▁surgical	-11242
ji	-11243
▁RF	-11244
▁Anth	-11245
▁enzym	-11246
ropriate	-11247
▁sensory	-11248
▁Einstein	-11249
▁designing	-11250
▁Renaissance	-11251
cor	-11252
olecular	-11253
▁gau	-11254
father	-11255
▁artic	-11256
▁robust	-11257
ilibrium	-11258
▁peculiar	-11259
▁transparent	-11260
";	-11261
HT	-11262
▁Pa	-11263
grad	-11264
▁Juda	-11265
▁dairy	-11266
▁rival	-11267
▁flowing	-11268
▁resolve	-11269
eps	-11270
nty	-11271
▁Aer	-11272
▁BBC	-11273
▁Harry	-11274
▁proud	-11275
▁buying	-11276
▁compost	-11277
▁agreements	-11278
aze	-11279
▁Job	-11280
▁Sound	-11281
▁cosmic	-11282
▁asteroid	-11283
▁brilliant	-11284
▁classrooms	-11285
▁Lower	-11286
▁titles	-11287
po	-11288
ophy	-11289
▁bold	-11290
▁Brook	-11291
▁Linux	-11292
▁affil	-11293
▁Document	-11294
▁headquarters	-11295
89	-11296
▁demonstrates	-11297
:10.10	-11298
▁teens	-11299
▁murd	-11300
▁Broad	-11301
▁fifteen	-11302
▁permits	-11303
▁efficiently	-11304
▁quantitative	-11305
pted	-11306
owing	-11307
▁wound	-11308
▁quoted	-11309
▁suspect	-11310
VI	-11311
you	-11312
▁Rap	-11313
white	-11314
utical	-11315
▁entity	-11316
▁Saturday	-11317
▁intervals	-11318
▁foundations	-11319
pers	-11320
▁Dub	-11321
▁Brig	-11322
ecessary	-11323
▁Alexand	-11324
▁Present	-11325
▁fertility	-11326
▁preliminary	-11327
alin	-11328
▁publicly	-11329
▁56	-11330
▁cig	-11331
words	-11332
▁Pict	-11333
▁phones	-11334
▁payment	-11335
1–	-11336
▁odd	-11337
quest	-11338
▁Monitor	-11339
▁optimal	-11340
ochemical	-11341
▁negotiations	-11342
aza	-11343
ipe	-11344
▁31,	-11345
letin	-11346
▁Clean	-11347
▁rises	-11348
▁Police	-11349
▁ethics	-11350
▁voting	-11351
▁Holocaust	-11352
▁corruption	-11353
▁Si	-11354
anna	-11355
gence	-11356
▁spinal	-11357
▁warfare	-11358
▁machinery	-11359
.||	-11360
▁mail	-11361
utenant	-11362
▁realistic	-11363
▁RE	-11364
olith	-11365
▁modes	-11366
▁Muhammad	-11367
▁formerly	-11368
▁Brad	-11369
▁Magn	-11370
▁finance	-11371
▁originated	-11372
ribe	-11373
▁dried	-11374
ositive	-11375
riction	-11376
▁Besides	-11377
▁undergo	-11378
▁customer	-11379
▁disagree	-11380
▁(“	-11381
▁jew	-11382
▁mes	-11383
imore	-11384
▁Wolf	-11385
osures	-11386
▁margin	-11387
▁emperor	-11388
▁Benjamin	-11389
▁Oklahoma	-11390
▁imported	-11391
▁wireless	-11392
▁inherited	-11393
▁Gir	-11394
▁McK	-11395
▁mask	-11396
▁Urban	-11397
▁seats	-11398
▁organize	-11399
▁thoroughly	-11400
unci	-11401
▁Fri	-11402
▁thesis	-11403
5),	-11404
inea	-11405
▁races	-11406
▁battles	-11407
▁seeks	-11408
▁corporations	-11409
sk	-11410
▁cel	-11411
matic	-11412
▁AC	-11413
▁Dak	-11414
▁kin	-11415
▁opens	-11416
▁unexpected	-11417
").	-11418
▁CN	-11419
▁algae	-11420
▁Austria	-11421
▁altitude	-11422
▁Declaration	-11423
▁genetically	-11424
▁Issue	-11425
▁Marshall	-11426
▁historically	-11427
▁Loc	-11428
▁tunnel	-11429
▁accessed	-11430
▁choosing	-11431
▁entities	-11432
wind	-11433
▁cod	-11434
▁Vill	-11435
▁exem	-11436
▁quot	-11437
▁glory	-11438
3-	-11439
ohyd	-11440
rass	-11441
▁Flu	-11442
▁Greeks	-11443
▁rubber	-11444
▁mankind	-11445
▁arrangements	-11446
▁documentation	-11447
▁PRO	-11448
▁anch	-11449
▁nick	-11450
▁weekly	-11451
▁forcing	-11452
▁prolong	-11453
▁Throughout	-11454
▁likelihood	-11455
▁alb	-11456
▁bark	-11457
▁fatty	-11458
▁epidemic	-11459
▁observing	-11460
7;	-11461
bro	-11462
han	-11463
▁puls	-11464
▁Turkish	-11465
▁illustrations	-11466
▁fats	-11467
▁meals	-11468
▁silicon	-11469
yes	-11470
▁Tro	-11471
▁destro	-11472
▁nucleus	-11473
▁smallest	-11474
mill	-11475
▁Ros	-11476
▁marginal	-11477
▁Portuguese	-11478
▁lith	-11479
▁Kings	-11480
▁mistake	-11481
▁decreases	-11482
▁persistent	-11483
Ab	-11484
▁Kids	-11485
owners	-11486
▁plural	-11487
▁followers	-11488
2/	-11489
▁CDC	-11490
first	-11491
lings	-11492
▁beds	-11493
▁dwarf	-11494
▁reven	-11495
▁metric	-11496
▁replic	-11497
▁Aristotle	-11498
▁advertising	-11499
4-	-11500
zech	-11501
▁agenda	-11502
▁modest	-11503
▁firstname	-11504
▁degradation	-11505
▁manufacturer	-11506
▁IBM	-11507
▁jet	-11508
ogram	-11509
▁canal	-11510
▁gross	-11511
▁steep	-11512
oriented	-11513
▁testimony	-11514
▁Hud	-11515
▁bay	-11516
▁bin	-11517
▁ecology	-11518
▁websites	-11519
supp	-11520
found	-11521
▁desp	-11522
▁noble	-11523
▁graphic	-11524
▁Planning	-11525
▁theology	-11526
▁explanations	-11527
DL	-11528
aque	-11529
▁prin	-11530
▁Infant	-11531
▁cataly	-11532
▁afternoon	-11533
▁1-	-11534
▁Memorial	-11535
▁afterwards	-11536
yt	-11537
▁ow	-11538
▁(17	-11539
▁retail	-11540
3–	-11541
PR	-11542
▁cer	-11543
▁Name	-11544
▁defects	-11545
▁certific	-11546
▁Northwest	-11547
▁Ky	-11548
▁Cut	-11549
mouth	-11550
▁Ethiop	-11551
▁coupled	-11552
▁inspect	-11553
▁predators	-11554
▁destination	-11555
yers	-11556
▁Select	-11557
bled	-11558
aughters	-11559
▁explicitly	-11560
MI	-11561
alry	-11562
▁Fem	-11563
▁Ori	-11564
▁Pra	-11565
▁drag	-11566
▁Compar	-11567
▁bottle	-11568
▁belongs	-11569
▁customs	-11570
▁induced	-11571
▁flooding	-11572
▁cad	-11573
▁evac	-11574
▁cooperative	-11575
iens	-11576
look	-11577
rett	-11578
▁Hug	-11579
▁Coal	-11580
▁Parents	-11581
▁advocates	-11582
▁manufactured	-11583
dam	-11584
▁Bad	-11585
▁Pil	-11586
▁Was	-11587
opter	-11588
▁pose	-11589
▁wash	-11590
▁penal	-11591
▁spark	-11592
▁tough	-11593
▁Strateg	-11594
▁outline	-11595
▁ceremony	-11596
▁instructional	-11597
▁Ra	-11598
▁Virt	-11599
▁rebell	-11600
ependent	-11601
▁confined	-11602
▁inspiration	-11603
▁15.	-11604
▁Sri	-11605
▁operator	-11606
▁perspectives	-11607
iox	-11608
▁95	-11609
▁Fif	-11610
▁cha	-11611
▁hurt	-11612
▁throne	-11613
▁surviving	-11614
aki	-11615
arten	-11616
▁coron	-11617
▁meets	-11618
▁seasons	-11619
▁Geological	-11620
▁nic	-11621
orney	-11622
▁gang	-11623
▁stems	-11624
▁Fourth	-11625
tically	-11626
▁bureau	-11627
▁dispar	-11628
▁melting	-11629
▁hol	-11630
▁Fried	-11631
▁slide	-11632
▁Literature	-11633
▁Kir	-11634
▁Soft	-11635
▁armies	-11636
olutions	-11637
▁holiday	-11638
▁interval	-11639
▁eliminated	-11640
iffs	-11641
risk	-11642
▁Risk	-11643
▁germ	-11644
Bl	-11645
they	-11646
▁voy	-11647
▁Think	-11648
▁dispute	-11649
▁painful	-11650
▁Previous	-11651
▁indication	-11652
oved	-11653
▁assessed	-11654
▁activists	-11655
▁creativity	-11656
▁importantly	-11657
othy	-11658
▁Bos	-11659
▁Imag	-11660
▁inver	-11661
▁Related	-11662
▁astronaut	-11663
▁collaborative	-11664
▁wra	-11665
▁Facebook	-11666
▁challenged	-11667
▁°	-11668
▁Inv	-11669
These	-11670
▁Love	-11671
▁Simon	-11672
▁soldier	-11673
▁rendered	-11674
▁connecting	-11675
▁Sant	-11676
▁gravitational	-11677
keys	-11678
opher	-11679
iances	-11680
▁depri	-11681
▁oxide	-11682
inus	-11683
▁Deb	-11684
▁reh	-11685
▁speaks	-11686
▁Evidence	-11687
▁52	-11688
▁NI	-11689
hend	-11690
rets	-11691
▁175	-11692
▁loud	-11693
▁Along	-11694
▁ranks	-11695
▁realm	-11696
▁congress	-11697
▁Abstract	-11698
EST	-11699
▁Syria	-11700
▁sixth	-11701
▁suspended	-11702
▁CM	-11703
▁trauma	-11704
▁teaches	-11705
▁engagement	-11706
feeding	-11707
quality	-11708
aceutical	-11709
▁tolerance	-11710
mic	-11711
leans	-11712
▁boards	-11713
▁Country	-11714
▁drainage	-11715
▁peripher	-11716
raid	-11717
▁Domin	-11718
▁talks	-11719
▁surely	-11720
▁Imperial	-11721
▁acknowledge	-11722
bul	-11723
neys	-11724
▁Enc	-11725
▁appar	-11726
▁repet	-11727
▁voters	-11728
▁interfere	-11729
▁Depression	-11730
aux	-11731
names	-11732
▁Anim	-11733
▁arter	-11734
▁drops	-11735
▁landsc	-11736
▁static	-11737
▁tracking	-11738
▁separately	-11739
▁Observatory	-11740
▁nutritional	-11741
▁Fle	-11742
▁Tal	-11743
dated	-11744
▁coins	-11745
▁farmer	-11746
ís	-11747
▁Ta	-11748
uated	-11749
▁Pain	-11750
▁paths	-11751
▁Jordan	-11752
▁shares	-11753
▁crossed	-11754
▁designers	-11755
▁Consequently	-11756
▁Tu	-11757
▁ink	-11758
▁Mong	-11759
▁Mechan	-11760
▁attribute	-11761
7),	-11762
odynam	-11763
▁probe	-11764
▁locate	-11765
▁mixing	-11766
▁licensed	-11767
▁54	-11768
lied	-11769
orks	-11770
▁WHO	-11771
▁hoped	-11772
▁verbal	-11773
▁immense	-11774
▁spont	-11775
!”	-11776
ART	-11777
yard	-11778
▁Iss	-11779
▁hide	-11780
▁wake	-11781
▁sorts	-11782
effective	-11783
▁assembled	-11784
▁compliance	-11785
itance	-11786
▁Includ	-11787
▁pulled	-11788
▁Connecticut	-11789
▁frog	-11790
▁brick	-11791
▁Particip	-11792
▁empirical	-11793
One	-11794
▁(0	-11795
▁IL	-11796
friend	-11797
▁crash	-11798
▁fluctu	-11799
▁eaten	-11800
▁retire	-11801
▁Philippines	-11802
▁NA	-11803
▁disci	-11804
▁lectures	-11805
▁descendants	-11806
▁Lic	-11807
▁strip	-11808
▁farther	-11809
▁uranium	-11810
▁deterior	-11811
▁shoulder	-11812
▁Chemistry	-11813
was	-11814
▁Award	-11815
▁pride	-11816
▁nursing	-11817
▁invasive	-11818
.3	-11819
uns	-11820
▁PH	-11821
urse	-11822
▁gay	-11823
▁thank	-11824
▁Import	-11825
urrection	-11826
▁infrared	-11827
▁Economics	-11828
▁settlements	-11829
Col	-11830
▁Tok	-11831
ocene	-11832
▁skilled	-11833
▁informal	-11834
▁Bull	-11835
▁pointing	-11836
OG	-11837
▁μ	-11838
burn	-11839
pler	-11840
▁monthly	-11841
▁passive	-11842
▁emergence	-11843
▁discussing	-11844
▁extensively	-11845
▁continuously	-11846
asia	-11847
▁palm	-11848
▁1998,	-11849
▁liber	-11850
TC	-11851
▁CL	-11852
obic	-11853
▁isot	-11854
▁dependence	-11855
▁developers	-11856
▁Tour	-11857
urally	-11858
▁fails	-11859
▁submit	-11860
cr	-11861
income	-11862
▁Negro	-11863
▁Editor	-11864
▁Galile	-11865
▁eternal	-11866
auc	-11867
rod	-11868
▁yards	-11869
▁highway	-11870
▁scenarios	-11871
3;	-11872
py	-11873
vance	-11874
▁gaps	-11875
▁determines	-11876
▁disappeared	-11877
imic	-11878
▁Pyth	-11879
▁seiz	-11880
▁honest	-11881
▁gallons	-11882
▁inclusion	-11883
▁coordination	-11884
arts	-11885
lies	-11886
▁Tai	-11887
ennium	-11888
▁purely	-11889
▁Colonel	-11890
▁circuits	-11891
▁genetics	-11892
▁Questions	-11893
eu	-11894
▁sacrific	-11895
▁astronomy	-11896
WS	-11897
▁Gas	-11898
version	-11899
▁metres	-11900
▁specimen	-11901
▁strictly	-11902
▁Syn	-11903
urated	-11904
▁Orleans	-11905
itzerland	-11906
▁belonging	-11907
▁pediatric	-11908
▁regulated	-11909
afe	-11910
▁monop	-11911
▁Russell	-11912
▁indicator	-11913
▁similarly	-11914
aran	-11915
away	-11916
olics	-11917
▁epit	-11918
▁Seattle	-11919
▁wealthy	-11920
▁dissolved	-11921
▁publishing	-11922
itus	-11923
▁dwell	-11924
▁pneum	-11925
▁Members	-11926
▁Independence	-11927
▁Ord	-11928
▁Rio	-11929
ocols	-11930
▁investments	-11931
4;	-11932
▁tet	-11933
▁coin	-11934
▁transf	-11935
▁exclusive	-11936
▁anniversary	-11937
uto	-11938
▁ties	-11939
cedented	-11940
▁resolved	-11941
▁Federation	-11942
▁experiencing	-11943
▁oste	-11944
▁deals	-11945
▁Patients	-11946
▁Antarctic	-11947
▁Na	-11948
▁Oak	-11949
▁Stock	-11950
▁darkness	-11951
▁pronounced	-11952
▁5:	-11953
adic	-11954
post	-11955
raine	-11956
▁diarr	-11957
dri	-11958
oard	-11959
ontin	-11960
▁Czech	-11961
▁commerce	-11962
▁automatic	-11963
▁Mercury	-11964
▁antenna	-11965
▁fulfill	-11966
▁Religion	-11967
▁limiting	-11968
▁shipping	-11969
▁evaluating	-11970
▁Hait	-11971
▁Video	-11972
▁alphabet	-11973
▁Shar	-11974
rophic	-11975
▁closest	-11976
▁reactor	-11977
▁geography	-11978
▁Cru	-11979
▁Thom	-11980
abilitation	-11981
sur	-11982
educ	-11983
iast	-11984
asses	-11985
▁Bart	-11986
▁buck	-11987
▁ions	-11988
▁heated	-11989
▁Swedish	-11990
▁outstanding	-11991
En	-11992
▁Ce	-11993
▁Dick	-11994
▁asks	-11995
▁Weather	-11996
▁railway	-11997
jan	-11998
urable	-11999
▁champ	-12000
▁worlds	-12001
▁kitchen	-12002
▁retired	-12003
▁operates	-12004
list	-12005
amins	-12006
▁pink	-12007
▁pyram	-12008
▁counts	-12009
▁frozen	-12010
▁fluores	-12011
erto	-12012
▁bags	-12013
▁overlook	-12014
▁accounting	-12015
▁continental	-12016
▁Gib	-12017
▁keys	-12018
pective	-12019
ressing	-12020
▁update	-12021
▁powered	-12022
▁symbolic	-12023
bin	-12024
▁Gord	-12025
letter	-12026
▁cubic	-12027
▁elaborate	-12028
▁altogether	-12029
enders	-12030
▁arose	-12031
▁theor	-12032
▁gasoline	-12033
▁Frederick	-12034
▁Princeton	-12035
▁pollutants	-12036
▁therapeutic	-12037
vo	-12038
link	-12039
▁1996.	-12040
▁peaceful	-12041
▁precious	-12042
▁teachings	-12043
▁calm	-12044
▁Babylon	-12045
▁drilling	-12046
cf	-12047
▁ride	-12048
▁Chair	-12049
▁freed	-12050
▁sword	-12051
▁picked	-12052
▁temporal	-12053
1;	-12054
vae	-12055
▁IM	-12056
▁Nar	-12057
marks	-12058
▁bills	-12059
▁patch	-12060
▁Ground	-12061
▁Effects	-12062
▁descent	-12063
▁lacking	-12064
▁transit	-12065
▁biblical	-12066
▁geographical	-12067
whe	-12068
▁acre	-12069
▁1997.	-12070
▁contra	-12071
▁terrain	-12072
▁medicines	-12073
cm	-12074
case	-12075
▁Yale	-12076
iences	-12077
ingham	-12078
▁trick	-12079
▁Letters	-12080
▁Roberts	-12081
▁tourism	-12082
▁aluminum	-12083
Res	-12084
▁ignore	-12085
▁authorized	-12086
▁SM	-12087
ilty	-12088
▁shade	-12089
▁collaps	-12090
▁standardized	-12091
Fig	-12092
zens	-12093
izational	-12094
▁simulations	-12095
▁Lev	-12096
▁Lakes	-12097
▁Communication	-12098
▁dat	-12099
▁pou	-12100
▁Upon	-12101
access	-12102
▁harsh	-12103
▁fusion	-12104
▁warmer	-12105
▁requests	-12106
▁Pi	-12107
▁2.5	-12108
▁Deep	-12109
▁syll	-12110
ewater	-12111
▁prejud	-12112
▁thrust	-12113
▁Toronto	-12114
▁compete	-12115
▁excited	-12116
▁requested	-12117
▁settle	-12118
▁employee	-12119
▁enabling	-12120
▁integrate	-12121
auses	-12122
▁Past	-12123
retion	-12124
▁Hubble	-12125
▁assass	-12126
ationally	-12127
▁entreprene	-12128
▁Institution	-12129
mus	-12130
▁Kal	-12131
▁Anti	-12132
▁Posted	-12133
▁oscill	-12134
▁illustrates	-12135
▁supplements	-12136
▁combinations	-12137
▁cardiovascular	-12138
uz	-12139
iser	-12140
ierra	-12141
uction	-12142
▁Forum	-12143
▁Mormon	-12144
▁radius	-12145
▁united	-12146
▁outdoor	-12147
▁coordinate	-12148
▁linguistic	-12149
▁methodology	-12150
▁USDA	-12151
▁juice	-12152
▁pupils	-12153
▁transmit	-12154
arium	-12155
▁lesser	-12156
▁promotion	-12157
▁highlights	-12158
▁cultivation	-12159
bet	-12160
▁Ze	-12161
okes	-12162
▁Lis	-12163
▁dece	-12164
ighters	-12165
cts	-12166
▁admit	-12167
3/	-12168
▁97	-12169
▁Vo	-12170
arms	-12171
▁Brother	-12172
▁profits	-12173
log	-12174
alion	-12175
▁flies	-12176
▁terminal	-12177
▁seemingly	-12178
Qu	-12179
800	-12180
best	-12181
▁feat	-12182
▁costly	-12183
▁pushing	-12184
▁celebrate	-12185
hr	-12186
len	-12187
▁bats	-12188
▁proc	-12189
second	-12190
▁shoes	-12191
▁votes	-12192
▁carcin	-12193
▁shells	-12194
▁privacy	-12195
▁tutorial	-12196
▁neighbour	-12197
phe	-12198
ignty	-12199
▁Lady	-12200
inator	-12201
▁Summer	-12202
▁polymer	-12203
▁metabolism	-12204
▁Moscow	-12205
▁depicted	-12206
▁planetary	-12207
▁personally	-12208
▁LED	-12209
▁Mun	-12210
▁Eric	-12211
▁tent	-12212
▁crowd	-12213
▁fears	-12214
▁viable	-12215
▁contracts	-12216
▁furniture	-12217
▁occasions	-12218
▁Switzerland	-12219
▁ly	-12220
cled	-12221
▁(4)	-12222
▁700	-12223
▁Nev	-12224
▁sake	-12225
orical	-12226
▁Torah	-12227
▁campaigns	-12228
▁maintains	-12229
▁unprecedented	-12230
0.0	-12231
▁incidents	-12232
▁replacing	-12233
▁earthquakes	-12234
mn	-12235
lob	-12236
icides	-12237
▁crude	-12238
▁digit	-12239
▁Baltimore	-12240
▁volunteer	-12241
▁prosperity	-12242
▁recommends	-12243
és	-12244
▁Below	-12245
generation	-12246
cap	-12247
esium	-12248
▁fool	-12249
▁reads	-12250
▁sanct	-12251
▁enzymes	-12252
▁horizon	-12253
▁alongside	-12254
vity	-12255
▁Der	-12256
▁Haz	-12257
▁Las	-12258
roups	-12259
▁afraid	-12260
▁consec	-12261
▁guided	-12262
▁extinct	-12263
▁passages	-12264
Med	-12265
aved	-12266
only	-12267
▁busy	-12268
▁loans	-12269
▁Capital	-12270
▁texture	-12271
▁Protocol	-12272
PD	-12273
▁beans	-12274
▁decomp	-12275
▁landed	-12276
▁emphasized	-12277
▁fee	-12278
▁submar	-12279
▁Prophet	-12280
▁football	-12281
▁toys	-12282
▁Anglo	-12283
▁lenses	-12284
▁strikes	-12285
▁formally	-12286
▁meanings	-12287
cat	-12288
mont	-12289
thening	-12290
▁Hudson	-12291
▁fatigue	-12292
▁accidents	-12293
▁interrupt	-12294
BA	-12295
lict	-12296
▁amph	-12297
▁melt	-12298
▁Alliance	-12299
▁Palestinian	-12300
▁destructive	-12301
tha	-12302
▁20%	-12303
▁menu	-12304
▁Chron	-12305
▁magic	-12306
▁Person	-12307
▁workshops	-12308
▁organisation	-12309
olia	-12310
umatic	-12311
▁Beach	-12312
▁straw	-12313
▁metall	-12314
▁filling	-12315
▁faithful	-12316
▁continually	-12317
FS	-12318
▁§	-12319
RNA	-12320
▁Byz	-12321
▁hind	-12322
▁traces	-12323
▁legitimate	-12324
▁assignments	-12325
▁Total	-12326
▁Almost	-12327
▁hearts	-12328
▁electromagnetic	-12329
IO	-12330
8),	-12331
▁59	-12332
▁ber	-12333
▁Element	-12334
AND	-12335
etal	-12336
▁1/2	-12337
iking	-12338
▁Team	-12339
▁beta	-12340
▁Travel	-12341
▁dischar	-12342
▁examines	-12343
▁swimming	-12344
▁practiced	-12345
▁accommodate	-12346
pm	-12347
rock	-12348
▁erected	-12349
▁Ve	-12350
▁Beyond	-12351
▁Norway	-12352
▁cooper	-12353
▁fiscal	-12354
▁hunger	-12355
▁retrie	-12356
▁inevitable	-12357
▁(195	-12358
▁Hind	-12359
arding	-12360
▁joints	-12361
▁algebra	-12362
▁floating	-12363
▁specialist	-12364
exts	-12365
▁Advis	-12366
▁fluids	-12367
ili	-12368
wall	-12369
▁raises	-12370
fficiency	-12371
▁billions	-12372
eem	-12373
uilt	-12374
▁170	-12375
gered	-12376
▁1995.	-12377
▁Datab	-12378
▁lasted	-12379
ressions	-12380
▁prototype	-12381
▁economically	-12382
▁Alan	-12383
▁gifts	-12384
EX	-12385
urred	-12386
▁deadly	-12387
▁chicken	-12388
xic	-12389
▁Burn	-12390
▁prostate	-12391
elta	-12392
leys	-12393
▁Lan	-12394
▁bicy	-12395
▁arsen	-12396
▁fundament	-12397
▁combustion	-12398
▁supporters	-12399
PC	-12400
▁Nat	-12401
▁hormones	-12402
▁artillery	-12403
▁considers	-12404
▁instructor	-12405
▁compensation	-12406
AV	-12407
opt	-12408
ener	-12409
▁node	-12410
▁Gospel	-12411
▁charter	-12412
▁ethanol	-12413
▁winning	-12414
,’	-12415
▁Zion	-12416
▁crystals	-12417
▁placement	-12418
Ps	-12419
ardo	-12420
▁16.	-12421
▁ADHD	-12422
▁Isaac	-12423
ige	-12424
▁ecc	-12425
▁Region	-12426
▁imagery	-12427
▁reductions	-12428
▁politically	-12429
▁..	-12430
estab	-12431
▁Batt	-12432
▁cream	-12433
▁rigid	-12434
▁achievements	-12435
▁yes	-12436
▁pest	-12437
▁Maria	-12438
▁Judaism	-12439
▁mutation	-12440
▁readings	-12441
▁philosophers	-12442
raul	-12443
▁rif	-12444
▁Bird	-12445
▁Hong	-12446
▁mant	-12447
▁specialists	-12448
pur	-12449
▁Joint	-12450
▁brush	-12451
▁somehow	-12452
▁prediction	-12453
rying	-12454
▁1986	-12455
▁warri	-12456
▁uncons	-12457
ipt	-12458
▁99	-12459
▁Fox	-12460
there	-12461
▁2013.	-12462
▁apost	-12463
▁incons	-12464
▁reconstruct	-12465
LS	-12466
sor	-12467
▁51	-12468
▁disasters	-12469
-16	-12470
▁110	-12471
endent	-12472
person	-12473
▁Comment	-12474
▁contexts	-12475
▁releases	-12476
▁Catholics	-12477
▁employers	-12478
▁motivated	-12479
lie	-12480
▁CR	-12481
▁Ts	-12482
iors	-12483
▁Sudan	-12484
▁Avenue	-12485
▁shifts	-12486
▁Clinton	-12487
▁Europeans	-12488
▁Initiative	-12489
▁terrestrial	-12490
ATE	-12491
▁Ga	-12492
▁SC	-12493
▁1985	-12494
▁Kong	-12495
▁pulse	-12496
▁injection	-12497
▁survivors	-12498
▁microscope	-12499
hot	-12500
igs	-12501
ranes	-12502
▁dictionary	-12503
▁appointment	-12504
ika	-12505
oths	-12506
rill	-12507
▁130	-12508
▁needle	-12509
▁synthes	-12510
||1	-12511
▁GPS	-12512
astics	-12513
plicity	-12514
▁schemes	-12515
▁demanded	-12516
▁efficacy	-12517
▁passenger	-12518
▁NC	-12519
igious	-12520
▁subjected	-12521
▁equilibrium	-12522
▁Base	-12523
▁Tree	-12524
▁Naval	-12525
▁landf	-12526
▁enters	-12527
▁guides	-12528
▁Summary	-12529
▁forgotten	-12530
▁remembered	-12531
▁photography	-12532
heim	-12533
▁vow	-12534
▁Khan	-12535
▁delight	-12536
▁encourages	-12537
▁jun	-12538
ambers	-12539
▁Download	-12540
Eng	-12541
▁72	-12542
atis	-12543
▁Creation	-12544
▁pathways	-12545
▁Generally	-12546
▁accumulation	-12547
74	-12548
ivic	-12549
lessly	-12550
▁Colomb	-12551
▁antiqu	-12552
▁editors	-12553
pub	-12554
▁Mental	-12555
▁inserted	-12556
▁mobility	-12557
▁identifies	-12558
deg	-12559
▁Stra	-12560
▁deny	-12561
▁Title	-12562
▁alert	-12563
▁singing	-12564
▁airplane	-12565
▁evolve	-12566
▁harass	-12567
▁Subject	-12568
▁exports	-12569
▁devastating	-12570
imity	-12571
▁Lang	-12572
▁Peru	-12573
▁Quar	-12574
▁dedu	-12575
▁Record	-12576
▁deemed	-12577
▁propri	-12578
▁Patrick	-12579
▁suppose	-12580
ean	-12581
▁4-	-12582
▁Mas	-12583
▁Sel	-12584
amics	-12585
atile	-12586
▁wast	-12587
▁ruler	-12588
▁inputs	-12589
▁geological	-12590
vas	-12591
▁cum	-12592
▁intact	-12593
▁rulers	-12594
▁talked	-12595
▁phrases	-12596
▁creature	-12597
▁displace	-12598
olit	-12599
enter	-12600
utter	-12601
▁butt	-12602
▁fier	-12603
▁compiled	-12604
▁practitioners	-12605
▁66	-12606
▁Song	-12607
▁mast	-12608
▁warrant	-12609
▁unnecessary	-12610
apore	-12611
▁Rain	-12612
▁secretary	-12613
uf	-12614
-14	-12615
▁WH	-12616
host	-12617
▁McD	-12618
angers	-12619
▁acted	-12620
▁deficit	-12621
▁offspring	-12622
▁priorities	-12623
▁ul	-12624
arming	-12625
▁Houston	-12626
▁browser	-12627
stan	-12628
▁Tow	-12629
▁bars	-12630
▁1997,	-12631
▁worthy	-12632
▁substitute	-12633
third	-12634
▁rescue	-12635
▁cheaper	-12636
▁specify	-12637
▁athletes	-12638
▁abst	-12639
▁Build	-12640
▁seism	-12641
▁Records	-12642
▁incentives	-12643
yg	-12644
▁q	-12645
"),	-12646
▁alk	-12647
aments	-12648
resses	-12649
▁swall	-12650
▁voices	-12651
criptions	-12652
▁bleeding	-12653
▁petition	-12654
▁satisfaction	-12655
chi	-12656
umph	-12657
▁inval	-12658
▁sponsored	-12659
▁algorithms	-12660
▁flux	-12661
▁icon	-12662
plicit	-12663
▁Morris	-12664
▁inferior	-12665
▁competing	-12666
▁offensive	-12667
cet	-12668
hol	-12669
good	-12670
▁Methods	-12671
▁chocolate	-12672
▁containers	-12673
▁practically	-12674
▁registration	-12675
▁Ow	-12676
rish	-12677
▁offset	-12678
▁closing	-12679
▁Programme	-12680
▁respected	-12681
▁SE	-12682
▁pole	-12683
▁melan	-12684
▁foster	-12685
▁pursuit	-12686
▁prevents	-12687
▁illnesses	-12688
▁passengers	-12689
adian	-12690
▁Hopkins	-12691
▁incorrect	-12692
▁Bed	-12693
▁Emerg	-12694
▁elite	-12695
▁hepat	-12696
▁filters	-12697
ROM	-12698
utt	-12699
▁seas	-12700
▁loads	-12701
▁vocal	-12702
▁Accessed	-12703
▁monaster	-12704
▁antibodies	-12705
▁homosexual	-12706
▁compression	-12707
▁contributes	-12708
imb	-12709
cott	-12710
ishops	-12711
▁filed	-12712
▁refrig	-12713
▁tended	-12714
▁preference	-12715
94	-12716
aund	-12717
▁unst	-12718
▁pseud	-12719
▁spell	-12720
▁traged	-12721
▁ic	-12722
▁Cry	-12723
▁Maj	-12724
▁Gand	-12725
▁spirits	-12726
▁philosopher	-12727
92	-12728
idth	-12729
irie	-12730
▁0.5	-12731
▁Syd	-12732
▁rhet	-12733
▁rows	-12734
▁imped	-12735
▁terrible	-12736
▁animation	-12737
▁factories	-12738
arma	-12739
▁XML	-12740
▁Ottoman	-12741
▁Authority	-12742
▁obtaining	-12743
▁substrate	-12744
▁reliability	-12745
ugs	-12746
▁202	-12747
▁sho	-12748
▁Theod	-12749
iencies	-12750
▁warned	-12751
▁Looking	-12752
▁crystall	-12753
▁therapies	-12754
aga	-12755
roads	-12756
▁Pent	-12757
▁movies	-12758
▁suited	-12759
▁processor	-12760
▁inspection	-12761
inar	-12762
▁Eve	-12763
▁unsu	-12764
▁pound	-12765
▁lateral	-12766
▁moments	-12767
▁Question	-12768
▁stressed	-12769
▁freshwater	-12770
some	-12771
▁rum	-12772
quire	-12773
▁Mason	-12774
▁palace	-12775
▁unders	-12776
activity	-12777
▁strings	-12778
represent	-12779
▁monetary	-12780
▁reconstruction	-12781
eur	-12782
hal	-12783
▁truck	-12784
▁receptor	-12785
▁approached	-12786
▁presenting	-12787
▁legislature	-12788
nex	-12789
oni	-12790
artz	-12791
isan	-12792
ixty	-12793
reens	-12794
semble	-12795
ergarten	-12796
▁combining	-12797
▁Eventually	-12798
▁organisations	-12799
cca	-12800
Christ	-12801
▁throat	-12802
▁modules	-12803
▁celebration	-12804
▁cher	-12805
▁Reform	-12806
▁chains	-12807
▁periodic	-12808
▁succession	-12809
▁53	-12810
▁Poll	-12811
▁leak	-12812
▁oils	-12813
ittees	-12814
strong	-12815
▁978-0	-12816
▁trains	-12817
especially	-12818
forestation	-12819
ova	-12820
rea	-12821
itime	-12822
▁Show	-12823
▁Youth	-12824
▁Plants	-12825
▁cortex	-12826
▁dangers	-12827
▁utilized	-12828
▁Transportation	-12829
fol	-12830
uble	-12831
▁hur	-12832
▁remn	-12833
▁whale	-12834
▁Allied	-12835
▁cheese	-12836
▁markers	-12837
▁designer	-12838
!)	-12839
km	-12840
oxic	-12841
▁Bor	-12842
▁macro	-12843
▁delayed	-12844
▁Programs	-12845
▁observer	-12846
▁Telescope	-12847
xx	-12848
▁10-	-12849
▁Answ	-12850
▁thir	-12851
▁Credit	-12852
▁labels	-12853
▁solved	-12854
▁Account	-12855
▁dignity	-12856
▁metabolic	-12857
▁vaccination	-12858
worm	-12859
▁aug	-12860
cribe	-12861
▁Pale	-12862
▁Verm	-12863
▁Viol	-12864
▁stir	-12865
▁ports	-12866
▁stiff	-12867
▁praise	-12868
▁episode	-12869
▁unclear	-12870
▁protocols	-12871
▁drill	-12872
▁tuber	-12873
▁cultivated	-12874
▁nevertheless	-12875
tech	-12876
▁vine	-12877
rehend	-12878
▁Dakota	-12879
▁allies	-12880
▁emphasize	-12881
▁workplace	-12882
▁_	-12883
▁sie	-12884
ennis	-12885
▁Ibid	-12886
▁Luke	-12887
▁trap	-12888
ulture	-12889
▁chips	-12890
▁Legisl	-12891
▁harmony	-12892
▁calculation	-12893
▁Cas	-12894
▁toile	-12895
▁Nelson	-12896
▁abandon	-12897
▁bridges	-12898
▁curious	-12899
▁entries	-12900
▁Diseases	-12901
▁comprised	-12902
By	-12903
hu	-12904
▁EM	-12905
elle	-12906
mans	-12907
▁tsun	-12908
▁loaded	-12909
▁parameter	-12910
▁presentations	-12911
don	-12912
edge	-12913
thritis	-12914
▁Harris	-12915
▁arbitrary	-12916
▁18.	-12917
▁Bud	-12918
▁Quant	-12919
▁quote	-12920
▁robots	-12921
▁petroleum	-12922
appropriate	-12923
phy	-12924
uter	-12925
▁Sin	-12926
▁URL	-12927
▁Body	-12928
▁secured	-12929
▁travels	-12930
▁mistakes	-12931
▁Character	-12932
▁Commonwealth	-12933
–2	-12934
▁́	-12935
rup	-12936
▁(15	-12937
▁1995,	-12938
▁downt	-12939
▁thyroid	-12940
▁extracted	-12941
▁laboratories	-12942
Or	-12943
▁67	-12944
alia	-12945
▁conve	-12946
onomous	-12947
▁caution	-12948
▁apparatus	-12949
▁que	-12950
▁Brun	-12951
▁Late	-12952
comput	-12953
▁incom	-12954
▁68	-12955
▁Need	-12956
amation	-12957
ometric	-12958
▁stayed	-12959
........	-12960
▁preceding	-12961
▁exploitation	-12962
pus	-12963
bian	-12964
▁NAT	-12965
▁Draw	-12966
▁Mort	-12967
itated	-12968
▁1996,	-12969
▁Kenya	-12970
▁energ	-12971
▁individ	-12972
UD	-12973
oz	-12974
▁Salt	-12975
▁arises	-12976
iconduct	-12977
▁labeled	-12978
▁advocate	-12979
▁deployed	-12980
▁outlined	-12981
▁progression	-12982
▁5-	-12983
▁iv	-12984
▁Ltd	-12985
▁sor	-12986
▁hosts	-12987
▁uncon	-12988
▁bishop	-12989
▁incomp	-12990
▁momentum	-12991
▁Argentina	-12992
SE	-12993
John	-12994
mith	-12995
ruit	-12996
uate	-12997
▁1994,	-12998
▁Agree	-12999
▁banned	-13000
▁excluded	-13001
▁concludes	-13002
()	-13003
cha	-13004
piece	-13005
▁Insp	-13006
▁NOAA	-13007
▁misc	-13008
▁Morgan	-13009
▁payments	-13010
▁Christopher	-13011
61	-13012
ocide	-13013
▁Recon	-13014
▁Napole	-13015
▁carrier	-13016
▁neglect	-13017
▁”	-13018
▁Ple	-13019
▁stamp	-13020
▁Winter	-13021
▁transc	-13022
▁missile	-13023
enz	-13024
▁Phill	-13025
▁eager	-13026
▁spill	-13027
General	-13028
▁Sydney	-13029
▁modify	-13030
▁reluct	-13031
▁avoiding	-13032
▁discourse	-13033
dy	-13034
pha	-13035
ante	-13036
emen	-13037
▁Papers	-13038
▁titled	-13039
▁Solomon	-13040
▁analyzing	-13041
▁compelling	-13042
Us	-13043
▁lux	-13044
acity	-13045
▁Impact	-13046
nas	-13047
pen	-13048
▁juven	-13049
▁Planet	-13050
▁princip	-13051
▁counting	-13052
▁invisible	-13053
ochond	-13054
▁bibli	-13055
induced	-13056
▁Alfred	-13057
▁besides	-13058
▁satisfy	-13059
▁singular	-13060
▁1994.	-13061
▁Flight	-13062
▁charts	-13063
▁promotes	-13064
▁daughters	-13065
▁Shel	-13066
▁yard	-13067
▁Reports	-13068
WA	-13069
when	-13070
bound	-13071
rable	-13072
ulent	-13073
▁subjective	-13074
▁Tob	-13075
▁fitness	-13076
▁nearest	-13077
▁receptors	-13078
▁stimulate	-13079
erred	-13080
iatry	-13081
reach	-13082
▁Nile	-13083
▁drum	-13084
▁pref	-13085
sonian	-13086
▁blast	-13087
▁divor	-13088
▁layout	-13089
▁dinosaurs	-13090
▁provincial	-13091
▁entertainment	-13092
PP	-13093
erk	-13094
gel	-13095
▁LE	-13096
▁000	-13097
Table	-13098
▁balls	-13099
▁stops	-13100
▁trips	-13101
lighten	-13102
▁slower	-13103
▁Singapore	-13104
▁deposited	-13105
▁salvation	-13106
cou	-13107
▁Ern	-13108
▁dealt	-13109
▁Success	-13110
▁envelop	-13111
▁pathway	-13112
▁numerical	-13113
disciplinary	-13114
adi	-13115
▁oct	-13116
imated	-13117
▁burial	-13118
▁commemor	-13119
Te	-13120
▁(2010	-13121
▁ambit	-13122
▁reefs	-13123
▁runoff	-13124
atherine	-13125
▁Creative	-13126
▁Progress	-13127
▁inequality	-13128
▁Arn	-13129
▁Lith	-13130
▁dump	-13131
▁patron	-13132
▁metaphor	-13133
cht	-13134
rox	-13135
▁Row	-13136
▁mobil	-13137
▁feathers	-13138
▁compromise	-13139
Int	-13140
▁da	-13141
eres	-13142
atching	-13143
▁gaining	-13144
▁publish	-13145
▁instinct	-13146
atoes	-13147
▁Chen	-13148
▁lighter	-13149
acial	-13150
▁dens	-13151
▁knee	-13152
▁purs	-13153
▁Recomm	-13154
▁promises	-13155
▁Southeast	-13156
▁governance	-13157
▁modification	-13158
fin	-13159
▁AG	-13160
▁IC	-13161
pres	-13162
▁Dur	-13163
amous	-13164
uming	-13165
▁Talk	-13166
▁tide	-13167
angles	-13168
▁Around	-13169
▁basket	-13170
▁Handbook	-13171
▁Discovery	-13172
▁Ches	-13173
assium	-13174
▁burst	-13175
▁Effect	-13176
▁guilty	-13177
▁Madison	-13178
▁gradual	-13179
▁translate	-13180
▁occasional	-13181
▁Intelligence	-13182
/2	-13183
▁Maybe	-13184
▁depict	-13185
▁stocks	-13186
▁generates	-13187
▁obligation	-13188
▁illustration	-13189
Aug	-13190
▁TR	-13191
itar	-13192
▁140	-13193
▁coh	-13194
▁mad	-13195
ioned	-13196
▁Soon	-13197
▁pist	-13198
▁wool	-13199
▁Steve	-13200
▁diets	-13201
▁bullying	-13202
▁Greenland	-13203
AIDS	-13204
affe	-13205
▁Link	-13206
▁adul	-13207
▁Titan	-13208
▁commissioned	-13209
:0	-13210
▁Notes	-13211
▁Industry	-13212
▁mathematic	-13213
cre	-13214
uly	-13215
▁brut	-13216
itored	-13217
▁Divine	-13218
▁obstacles	-13219
▁Aboriginal	-13220
▁investigating	-13221
▁Ms	-13222
▁Gordon	-13223
▁museums	-13224
▁hierarchy	-13225
▁Sustainable	-13226
▁appreciation	-13227
72	-13228
asi	-13229
▁Raj	-13230
▁boom	-13231
▁zinc	-13232
ophren	-13233
▁cavity	-13234
▁Left	-13235
▁Games	-13236
▁Price	-13237
▁Silver	-13238
▁decent	-13239
▁fitted	-13240
▁defence	-13241
▁glaciers	-13242
fram	-13243
onge	-13244
▁Ped	-13245
icism	-13246
▁gover	-13247
▁Primary	-13248
▁determin	-13249
▁remainder	-13250
▁organizing	-13251
▁reflecting	-13252
BL	-13253
Do	-13254
▁Cav	-13255
oubted	-13256
articles	-13257
▁Anthony	-13258
▁Constant	-13259
▁maternal	-13260
▁structured	-13261
orse	-13262
ailand	-13263
fulness	-13264
▁cylinder	-13265
▁administrators	-13266
▁nas	-13267
▁cerv	-13268
▁scal	-13269
▁Grade	-13270
▁dozens	-13271
▁educate	-13272
▁fathers	-13273
▁formats	-13274
▁Professional	-13275
rer	-13276
▁Plato	-13277
▁Ridge	-13278
▁harmon	-13279
▁possessed	-13280
▁DE	-13281
▁firing	-13282
ognitive	-13283
▁justify	-13284
▁introducing	-13285
▁sovereignty	-13286
rade	-13287
▁muc	-13288
▁wax	-13289
▁hollow	-13290
izophren	-13291
▁Montana	-13292
▁perceive	-13293
▁validity	-13294
▁assessing	-13295
▁differential	-13296
▁environmentally	-13297
1):	-13298
sky	-13299
mind	-13300
▁1).	-13301
▁Norman	-13302
▁wheels	-13303
▁spelling	-13304
reck	-13305
▁Cart	-13306
▁teles	-13307
▁microw	-13308
▁Gallery	-13309
▁banking	-13310
▁monarch	-13311
▁observers	-13312
▁comprehension	-13313
▁>>	-13314
asis	-13315
▁Hope	-13316
▁blame	-13317
▁Manual	-13318
▁clergy	-13319
▁Denmark	-13320
▁carbohyd	-13321
▁Alt	-13322
▁orth	-13323
aceous	-13324
▁interven	-13325
▁sleeping	-13326
▁exceptions	-13327
TO	-13328
iii	-13329
▁dolph	-13330
▁Castle	-13331
▁Forces	-13332
▁Market	-13333
▁desper	-13334
▁Measure	-13335
▁directory	-13336
▁premature	-13337
▁witnessed	-13338
▁decreasing	-13339
SM	-13340
umm	-13341
▁cous	-13342
▁Spect	-13343
▁Michel	-13344
▁drinks	-13345
igma	-13346
▁beer	-13347
▁enlar	-13348
▁failing	-13349
▁morality	-13350
▁physiological	-13351
▁Hi	-13352
▁Pay	-13353
▁Snow	-13354
▁Multip	-13355
ista	-13356
▁Bry	-13357
inals	-13358
lades	-13359
osynt	-13360
▁thee	-13361
▁Member	-13362
''	-13363
aho	-13364
uis	-13365
ctica	-13366
▁carved	-13367
▁enroll	-13368
▁memorial	-13369
▁minorities	-13370
▁@	-13371
-30	-13372
▁ib	-13373
▁Thompson	-13374
▁eligible	-13375
▁southwest	-13376
▁consequently	-13377
dd	-13378
▁Stew	-13379
▁admin	-13380
▁Channel	-13381
▁Columbus	-13382
▁Hispanic	-13383
▁damaging	-13384
▁portrait	-13385
▁attending	-13386
▁wilderness	-13387
▁modifications	-13388
Apr	-13389
site	-13390
▁Sierra	-13391
▁buffer	-13392
▁curves	-13393
▁hostile	-13394
▁alternate	-13395
▁ambitious	-13396
▁governing	-13397
▁limestone	-13398
▁obligations	-13399
▁Articles	-13400
Ne	-13401
:30	-13402
iating	-13403
▁Quebec	-13404
speaking	-13405
▁desires	-13406
▁utilize	-13407
▁resil	-13408
▁traff	-13409
▁Atmosp	-13410
▁traced	-13411
▁dynasty	-13412
▁Institutes	-13413
▁perceptions	-13414
▁mol	-13415
▁bitter	-13416
▁intrig	-13417
▁Arkansas	-13418
▁ideology	-13419
▁Democrats	-13420
▁prevalent	-13421
93	-13422
fund	-13423
▁Game	-13424
usually	-13425
▁Issues	-13426
▁humidity	-13427
▁scholarly	-13428
▁strengths	-13429
▁spectacular	-13430
▁grey	-13431
▁dreams	-13432
▁floods	-13433
▁62	-13434
idency	-13435
ometry	-13436
usions	-13437
▁seventh	-13438
▁temples	-13439
▁infantry	-13440
▁amendment	-13441
▁territorial	-13442
bial	-13443
▁Emb	-13444
▁Stalin	-13445
▁probable	-13446
▁comparative	-13447
▁Publications	-13448
71	-13449
ORD	-13450
mma	-13451
obi	-13452
▁Run	-13453
atics	-13454
style	-13455
▁eman	-13456
▁Create	-13457
▁monitored	-13458
▁Indigenous	-13459
”)	-13460
▁lin	-13461
▁nuts	-13462
▁Crown	-13463
▁silent	-13464
▁paradigm	-13465
▁toxicity	-13466
▁accounted	-13467
▁neighboring	-13468
kg	-13469
9),	-13470
▁ISS	-13471
illes	-13472
mates	-13473
▁None	-13474
▁hect	-13475
▁Defin	-13476
▁Range	-13477
▁corrupt	-13478
▁exhibits	-13479
▁platforms	-13480
▁disappoint	-13481
▁approaching	-13482
▁breakthrough	-13483
▁stakeholders	-13484
aden	-13485
note	-13486
▁fits	-13487
welling	-13488
▁racism	-13489
▁upward	-13490
▁centres	-13491
▁adjusted	-13492
▁quarters	-13493
▁Universal	-13494
MD	-13495
Jan	-13496
count	-13497
▁Ever	-13498
▁pipes	-13499
▁Nevada	-13500
▁Partners	-13501
▁baseline	-13502
▁transported	-13503
▁zo	-13504
math	-13505
week	-13506
▁GIS	-13507
▁Month	-13508
▁Example	-13509
▁regards	-13510
▁justified	-13511
▁Description	-13512
.4	-13513
sim	-13514
▁oak	-13515
▁Flore	-13516
▁flavor	-13517
▁frames	-13518
▁Leaders	-13519
▁conceived	-13520
▁commercially	-13521
Mar	-13522
▁Susan	-13523
▁Would	-13524
▁thumb	-13525
▁actors	-13526
▁artery	-13527
▁contest	-13528
▁concentrate	-13529
▁declaration	-13530
▁na	-13531
▁Joe	-13532
oping	-13533
▁Kant	-13534
▁draws	-13535
▁Vienna	-13536
tebrates	-13537
▁northwest	-13538
▁pathogens	-13539
▁coordinates	-13540
56	-13541
flies	-13542
month	-13543
▁sink	-13544
▁comet	-13545
▁intrins	-13546
▁abortion	-13547
▁centered	-13548
▁sediments	-13549
▁permanently	-13550
84	-13551
wich	-13552
opath	-13553
▁Cany	-13554
iguous	-13555
forming	-13556
▁Square	-13557
▁walked	-13558
▁Ecology	-13559
▁whereby	-13560
▁Recently	-13561
▁Together	-13562
▁courtesy	-13563
▁socially	-13564
▁extraction	-13565
▁anticipated	-13566
▁scholarship	-13567
▁representations	-13568
dem	-13569
▁fu	-13570
ulus	-13571
group	-13572
▁tries	-13573
▁exempl	-13574
▁statue	-13575
▁Usually	-13576
▁alliance	-13577
▁hurricane	-13578
▁Gab	-13579
▁Lam	-13580
▁cardiac	-13581
▁linking	-13582
▁Province	-13583
▁commanded	-13584
▁reproduce	-13585
▁undergraduate	-13586
roit	-13587
▁Dal	-13588
▁imply	-13589
▁behave	-13590
▁watched	-13591
▁trillion	-13592
oan	-13593
▁MRI	-13594
rades	-13595
▁1945	-13596
mentia	-13597
redict	-13598
▁1990,	-13599
▁geology	-13600
▁companion	-13601
▁deposition	-13602
gic	-13603
ikes	-13604
ixon	-13605
▁eds	-13606
▁bite	-13607
▁peas	-13608
▁Delta	-13609
▁woods	-13610
forward	-13611
iciency	-13612
▁Problem	-13613
▁dialect	-13614
▁northeast	-13615
▁mysterious	-13616
án	-13617
rubs	-13618
▁dub	-13619
▁trop	-13620
▁Baker	-13621
▁Night	-13622
▁Higher	-13623
▁Concept	-13624
▁Workers	-13625
▁debates	-13626
eing	-13627
race	-13628
onder	-13629
▁deck	-13630
ancial	-13631
▁lunch	-13632
▁Banglades	-13633
▁sovereign	-13634
▁Dra	-13635
asury	-13636
▁Cust	-13637
▁toll	-13638
system	-13639
▁Malays	-13640
▁expenses	-13641
▁generator	-13642
FA	-13643
▁63	-13644
engu	-13645
osaur	-13646
▁Analy	-13647
▁Bruce	-13648
▁Minor	-13649
▁grasp	-13650
ifiable	-13651
▁crafts	-13652
▁declining	-13653
▁citizenship	-13654
▁organizational	-13655
52	-13656
▁’	-13657
▁HP	-13658
▁MO	-13659
▁cargo	-13660
herence	-13661
▁spiral	-13662
esterday	-13663
▁chromosome	-13664
▁Say	-13665
▁dinner	-13666
▁categor	-13667
Can	-13668
▁Nag	-13669
speed	-13670
▁knot	-13671
▁cruel	-13672
cession	-13673
▁sulfur	-13674
▁Scripture	-13675
▁similarities	-13676
egu	-13677
opy	-13678
expl	-13679
▁dot	-13680
adows	-13681
▁1990.	-13682
▁Seven	-13683
▁canon	-13684
▁whilst	-13685
▁wishes	-13686
▁shifted	-13687
▁Politics	-13688
▁Thailand	-13689
53	-13690
▁Dh	-13691
serv	-13692
▁Sky	-13693
▁hip	-13694
▁Jenn	-13695
▁Puerto	-13696
▁legally	-13697
▁prolonged	-13698
▁successor	-13699
▁meditation	-13700
8;	-13701
aic	-13702
backs	-13703
▁barely	-13704
▁occupy	-13705
▁Peninsula	-13706
="	-13707
June	-13708
odus	-13709
▁firmly	-13710
▁superf	-13711
▁bottles	-13712
▁capitalism	-13713
▁prohibited	-13714
isive	-13715
▁Faith	-13716
▁median	-13717
▁contacts	-13718
▁ministry	-13719
▁Engineers	-13720
▁satisfied	-13721
▁Et	-13722
▁ecl	-13723
cerpt	-13724
▁Sarah	-13725
▁excite	-13726
▁failures	-13727
▁wavelength	-13728
eva	-13729
pic	-13730
▁Euro	-13731
▁apple	-13732
▁prest	-13733
▁Atlanta	-13734
))	-13735
▁sug	-13736
▁Herm	-13737
▁depths	-13738
▁Margaret	-13739
▁shooting	-13740
DC	-13741
▁grazing	-13742
▁conquest	-13743
▁Religious	-13744
▁coalition	-13745
ulse	-13746
▁Bron	-13747
▁Lank	-13748
▁Sens	-13749
▁handled	-13750
▁Campbell	-13751
▁composite	-13752
▁OK	-13753
than	-13754
▁Vice	-13755
▁Graph	-13756
▁Walker	-13757
▁rating	-13758
▁recycled	-13759
▁innovations	-13760
▁Tel	-13761
rings	-13762
▁Acts	-13763
▁5,000	-13764
▁angry	-13765
▁bench	-13766
oter	-13767
▁abd	-13768
▁Band	-13769
▁Could	-13770
▁wires	-13771
▁larvae	-13772
▁Barbara	-13773
▁disabled	-13774
▁commodity	-13775
▁Geographic	-13776
▁definitive	-13777
▁fertilizer	-13778
aro	-13779
ipse	-13780
laim	-13781
▁Antarctica	-13782
Oct	-13783
▁gig	-13784
▁sau	-13785
ocking	-13786
▁spawn	-13787
▁finite	-13788
▁equator	-13789
▁listing	-13790
▁Robinson	-13791
▁lightning	-13792
▁constitutes	-13793
▁supervision	-13794
▁individually	-13795
Art	-13796
▁1993.	-13797
▁safer	-13798
ificant	-13799
▁escaped	-13800
11.	-13801
Cont	-13802
▁3,000	-13803
▁scrap	-13804
▁voted	-13805
▁Determ	-13806
▁Queens	-13807
▁builds	-13808
▁careers	-13809
▁appearing	-13810
oyd	-13811
pop	-13812
▁sq	-13813
With	-13814
mble	-13815
▁Dark	-13816
▁Mike	-13817
▁spokes	-13818
oubtedly	-13819
unciation	-13820
▁Bulletin	-13821
▁''	-13822
▁Tun	-13823
▁tale	-13824
▁Citiz	-13825
▁clues	-13826
▁screw	-13827
▁Arabia	-13828
▁revision	-13829
▁suggestion	-13830
▁surprisingly	-13831
▁FL	-13832
▁lamp	-13833
itably	-13834
▁underm	-13835
▁heading	-13836
▁masters	-13837
roscience	-13838
rac	-13839
▁17.	-13840
attan	-13841
erenn	-13842
otive	-13843
ashing	-13844
▁hired	-13845
▁pione	-13846
▁Vitamin	-13847
▁claiming	-13848
▁favorable	-13849
doc	-13850
ucks	-13851
▁ramp	-13852
thirds	-13853
▁Canyon	-13854
building	-13855
▁longest	-13856
▁silence	-13857
▁vitamins	-13858
▁correspondence	-13859
▁pigs	-13860
▁Veter	-13861
ographers	-13862
▁Database	-13863
▁latitude	-13864
▁Principles	-13865
▁pharmaceutical	-13866
2):	-13867
iasm	-13868
▁cin	-13869
▁True	-13870
carbon	-13871
▁Olympic	-13872
▁coating	-13873
2;	-13874
dec	-13875
▁Jos	-13876
index	-13877
▁Apost	-13878
▁spine	-13879
▁ceiling	-13880
▁rolling	-13881
ben	-13882
izz	-13883
wick	-13884
▁ell	-13885
andal	-13886
▁Phoen	-13887
▁pharmac	-13888
▁tactics	-13889
▁Infantry	-13890
▁adaptive	-13891
▁incredible	-13892
MM	-13893
ioxid	-13894
ulator	-13895
control	-13896
▁pencil	-13897
▁withdrawal	-13898
▁projections	-13899
0000	-13900
▁acou	-13901
▁cows	-13902
▁Eight	-13903
▁seized	-13904
▁Anthrop	-13905
▁Highway	-13906
▁joining	-13907
▁pilgrim	-13908
▁Problems	-13909
lightenment	-13910
conf	-13911
half	-13912
▁fees	-13913
▁1992.	-13914
▁Truth	-13915
▁drama	-13916
quisite	-13917
▁genius	-13918
▁likewise	-13919
▁stimulus	-13920
width	-13921
▁1880	-13922
▁norms	-13923
▁prize	-13924
IX	-13925
SC	-13926
aunt	-13927
▁cylind	-13928
▁displaced	-13929
▁histories	-13930
▁SA	-13931
orld	-13932
ethyl	-13933
▁Shah	-13934
▁pour	-13935
▁silk	-13936
▁Taiwan	-13937
▁missed	-13938
▁checked	-13939
▁Americas	-13940
▁Personal	-13941
▁producer	-13942
▁steadily	-13943
▁recommendation	-13944
▁Ok	-13945
▁blo	-13946
atson	-13947
rinted	-13948
▁Illust	-13949
▁solids	-13950
▁squares	-13951
▁hemisphere	-13952
1%	-13953
-13	-13954
▁EL	-13955
▁caut	-13956
▁77	-13957
▁vom	-13958
urate	-13959
monary	-13960
▁hotel	-13961
perature	-13962
▁inventory	-13963
▁Ye	-13964
▁Fun	-13965
atern	-13966
▁Beng	-13967
▁numb	-13968
▁Innov	-13969
▁Senator	-13970
rov	-13971
▁).	-13972
ltry	-13973
▁meg	-13974
▁Task	-13975
▁Tell	-13976
▁Term	-13977
▁Occup	-13978
▁declare	-13979
▁torture	-13980
▁constell	-13981
▁collision	-13982
▁ignorance	-13983
▁Gray	-13984
▁helic	-13985
▁friction	-13986
▁Depending	-13987
▁southeast	-13988
rost	-13989
▁Arc	-13990
▁100%	-13991
biology	-13992
▁diesel	-13993
▁tonnes	-13994
attering	-13995
▁commentary	-13996
div	-13997
iden	-13998
▁USS	-13999
ussian	-14000
▁Words	-14001
▁Infect	-14002
▁Murray	-14003
▁blocked	-14004
▁shuttle	-14005
▁surrender	-14006
mid	-14007
stud	-14008
▁Mir	-14009
▁marc	-14010
parent	-14011
raulic	-14012
▁Plate	-14013
▁focal	-14014
▁rounded	-14015
▁Portugal	-14016
▁Software	-14017
▁assuming	-14018
▁belonged	-14019
▁inability	-14020
▁investors	-14021
▁selecting	-14022
▁EX	-14023
▁Bat	-14024
edience	-14025
▁purple	-14026
▁Republicans	-14027
bons	-14028
oria	-14029
▁Pel	-14030
ermat	-14031
ijing	-14032
▁cough	-14033
▁Friends	-14034
▁Twitter	-14035
▁handful	-14036
▁receiver	-14037
▁civilians	-14038
▁hepatitis	-14039
ims	-14040
eches	-14041
▁eighteenth	-14042
▁Independent	-14043
bone	-14044
▁20.	-14045
apolis	-14046
▁fraud	-14047
▁nurse	-14048
4:	-14049
sea	-14050
prot	-14051
ripp	-14052
▁mas	-14053
▁Buff	-14054
▁Soil	-14055
▁cock	-14056
▁Write	-14057
▁snake	-14058
▁orbits	-14059
▁triumph	-14060
▁turbine	-14061
▁homework	-14062
▁routinely	-14063
▁propaganda	-14064
esar	-14065
▁bol	-14066
▁inland	-14067
▁explores	-14068
▁rebellion	-14069
▁specially	-14070
▁theological	-14071
otional	-14072
▁cement	-14073
▁turtles	-14074
▁selective	-14075
ivism	-14076
▁dawn	-14077
achment	-14078
▁bronze	-14079
▁parish	-14080
▁recruit	-14081
▁supreme	-14082
▁improves	-14083
▁stresses	-14084
▁affordable	-14085
▁acceleration	-14086
▁lig	-14087
▁bowl	-14088
▁Course	-14089
▁binary	-14090
▁termed	-14091
▁exagger	-14092
▁refined	-14093
▁overseas	-14094
▁portable	-14095
▁textbooks	-14096
▁78	-14097
▁rept	-14098
omorph	-14099
▁inexp	-14100
▁prone	-14101
▁Guinea	-14102
▁ingest	-14103
▁skelet	-14104
▁trucks	-14105
▁Liberty	-14106
▁Nicholas	-14107
▁servants	-14108
▁Fortunately	-14109
pay	-14110
▁fung	-14111
▁trapped	-14112
▁relevance	-14113
▁nationwide	-14114
mit	-14115
▁Ker	-14116
▁Cosm	-14117
▁arche	-14118
▁intim	-14119
▁differs	-14120
▁Railroad	-14121
▁textbook	-14122
▁signature	-14123
▁Pediatrics	-14124
▁recreational	-14125
▁investigators	-14126
00.	-14127
ensis	-14128
▁grat	-14129
izable	-14130
▁posed	-14131
▁remed	-14132
▁weren	-14133
▁credits	-14134
▁predecess	-14135
▁Smithsonian	-14136
▁Il	-14137
▁Tech	-14138
azines	-14139
direct	-14140
▁Estab	-14141
▁urged	-14142
▁Harbor	-14143
▁slopes	-14144
▁Gregory	-14145
▁enacted	-14146
▁frontier	-14147
▁opponents	-14148
91	-14149
oro	-14150
tem	-14151
▁vag	-14152
riages	-14153
▁Baptist	-14154
▁governed	-14155
▁attachment	-14156
▁counterparts	-14157
VA	-14158
URE	-14159
▁amend	-14160
▁monks	-14161
versely	-14162
historic	-14163
▁colours	-14164
▁capitalist	-14165
avy	-14166
cro	-14167
▁maj	-14168
chell	-14169
▁eleg	-14170
▁hook	-14171
▁shops	-14172
▁relies	-14173
▁witnesses	-14174
▁Bangladesh	-14175
▁justification	-14176
▁Len	-14177
points	-14178
▁1991,	-14179
▁blade	-14180
▁comprises	-14181
▁compatible	-14182
/19	-14183
nea	-14184
Sept	-14185
▁1979	-14186
▁nurses	-14187
▁poster	-14188
▁counted	-14189
▁flights	-14190
▁resemble	-14191
▁Scientist	-14192
▁adequately	-14193
ti	-14194
sett	-14195
▁Abd	-14196
▁Karl	-14197
▁Vari	-14198
itched	-14199
▁stuck	-14200
▁pressing	-14201
▁activated	-14202
▁righteous	-14203
news	-14204
▁cope	-14205
▁generic	-14206
▁controller	-14207
Why	-14208
▁TB	-14209
axis	-14210
▁Kit	-14211
▁Dead	-14212
▁heal	-14213
ifiers	-14214
racted	-14215
▁Leban	-14216
▁Parks	-14217
▁corps	-14218
▁forum	-14219
friendly	-14220
▁impaired	-14221
izophrenia	-14222
▁exhibited	-14223
▁landscapes	-14224
▁purchasing	-14225
will	-14226
▁Roy	-14227
▁SQL	-14228
▁athe	-14229
▁gland	-14230
chester	-14231
raviolet	-14232
▁Against	-14233
▁Applied	-14234
▁Emergency	-14235
▁reasonably	-14236
ilies	-14237
▁pand	-14238
▁trunk	-14239
▁Athens	-14240
▁refuse	-14241
▁comprising	-14242
▁recognised	-14243
▁threatening	-14244
Com	-14245
isen	-14246
umen	-14247
▁hate	-14248
▁vend	-14249
▁matching	-14250
▁prospect	-14251
▁uncommon	-14252
▁sculpture	-14253
▁eliminating	-14254
▁Construction	-14255
Go	-14256
Pe	-14257
tr	-14258
som	-14259
▁22.	-14260
▁doctr	-14261
▁indoor	-14262
▁Nothing	-14263
▁prophet	-14264
▁Born	-14265
ulatory	-14266
▁resort	-14267
leveland	-14268
▁Sources	-14269
▁theater	-14270
▁autonomy	-14271
▁shopping	-14272
▁preschool	-14273
▁strongest	-14274
▁Activities	-14275
57	-14276
▁Wat	-14277
▁hell	-14278
culosis	-14279
▁Various	-14280
▁advised	-14281
▁Brand	-14282
▁Roger	-14283
powered	-14284
ogenesis	-14285
▁domains	-14286
▁stating	-14287
▁volcano	-14288
▁transist	-14289
▁predominantly	-14290
pret	-14291
▁gut	-14292
space	-14293
ushes	-14294
▁Johns	-14295
▁reply	-14296
dependent	-14297
▁exposures	-14298
▁interpretations	-14299
arted	-14300
▁Ward	-14301
▁unch	-14302
▁Brian	-14303
▁Carter	-14304
icultural	-14305
▁Manufact	-14306
▁terrorist	-14307
▁coordinated	-14308
path	-14309
▁Pharm	-14310
▁poles	-14311
▁valued	-14312
▁goddess	-14313
▁enterpris	-14314
▁documentary	-14315
▁6:	-14316
▁GN	-14317
▁LA	-14318
ader	-14319
aders	-14320
▁tast	-14321
driven	-14322
▁autumn	-14323
▁Iranian	-14324
▁pressed	-14325
▁adjustment	-14326
▁exceptional	-14327
Comm	-14328
▁Exerc	-14329
▁Austin	-14330
naissance	-14331
▁Likewise	-14332
due	-14333
eda	-14334
cale	-14335
▁Gro	-14336
▁(190	-14337
▁recur	-14338
ository	-14339
▁surplus	-14340
?)	-14341
mph	-14342
▁23.	-14343
▁pilots	-14344
▁verses	-14345
▁washing	-14346
▁appropriately	-14347
▁Communications	-14348
fat	-14349
disc	-14350
▁Brah	-14351
▁leuk	-14352
▁Swiss	-14353
▁Activity	-14354
▁immigrant	-14355
▁violation	-14356
54	-14357
creat	-14358
▁dirt	-14359
▁Johann	-14360
▁Lesson	-14361
▁balloon	-14362
▁propose	-14363
▁replied	-14364
▁Interior	-14365
▁wastewater	-14366
▁accordingly	-14367
▁demographic	-14368
▁prescription	-14369
▁88	-14370
imeters	-14371
▁opposing	-14372
▁Mt	-14373
gate	-14374
▁Lyn	-14375
▁cran	-14376
▁Arabs	-14377
▁midst	-14378
National	-14379
▁Production	-14380
▁preferences	-14381
NET	-14382
▁Hob	-14383
▁Jay	-14384
▁Beth	-14385
hester	-14386
▁facial	-14387
▁induce	-14388
▁subord	-14389
▁Changes	-14390
▁venture	-14391
▁struggling	-14392
▁highlighted	-14393
Net	-14394
▁Nig	-14395
▁Rot	-14396
▁Fest	-14397
▁Pack	-14398
limited	-14399
olithic	-14400
▁Peters	-14401
▁lesions	-14402
▁treasure	-14403
▁Evaluation	-14404
▁Originally	-14405
▁compassion	-14406
▁semiconduct	-14407
▁temporarily	-14408
▁neighborhoods	-14409
estial	-14410
▁Antonio	-14411
▁thunder	-14412
▁distress	-14413
▁Elementary	-14414
▁contaminants	-14415
March	-14416
▁Lect	-14417
▁lean	-14418
▁broadly	-14419
▁vectors	-14420
▁festival	-14421
▁defensive	-14422
▁subsidies	-14423
▁instrumental	-14424
ür	-14425
his	-14426
▁SL	-14427
both	-14428
step	-14429
ocked	-14430
▁Give	-14431
▁deaf	-14432
course	-14433
▁Coord	-14434
▁capita	-14435
▁extrem	-14436
▁veterans	-14437
▁certified	-14438
▁1992,	-14439
▁Chris	-14440
▁Tokyo	-14441
▁ordin	-14442
▁souls	-14443
ounding	-14444
▁potatoes	-14445
▁disciples	-14446
.—	-14447
3%	-14448
Jew	-14449
▁Mi	-14450
pher	-14451
▁(16	-14452
▁21.	-14453
▁1890	-14454
▁Flood	-14455
▁fright	-14456
▁noting	-14457
resistant	-14458
▁Typically	-14459
▁complaints	-14460
▁incomplete	-14461
▁successive	-14462
hn	-14463
▁IR	-14464
enez	-14465
▁gel	-14466
▁Rule	-14467
▁Focus	-14468
▁badly	-14469
▁Rivers	-14470
▁crater	-14471
▁pollen	-14472
▁Biblical	-14473
▁preserving	-14474
▁corresponds	-14475
dig	-14476
fil	-14477
▁bee	-14478
itudinal	-14479
▁assumes	-14480
▁elastic	-14481
▁painter	-14482
▁Appendix	-14483
▁Critical	-14484
▁carriers	-14485
▁profiles	-14486
▁overweight	-14487
▁computational	-14488
PM	-14489
⁄2	-14490
▁lag	-14491
integ	-14492
market	-14493
▁Canal	-14494
▁Influ	-14495
▁aboard	-14496
▁favored	-14497
▁feasible	-14498
▁Guidelines	-14499
▁biologists	-14500
▁friendship	-14501
NAL	-14502
▁Cris	-14503
▁bass	-14504
50,000	-14505
London	-14506
▁arrow	-14507
▁enthusiasm	-14508
▁telescopes	-14509
▁stimulation	-14510
HC	-14511
▁$3	-14512
▁sid	-14513
▁Nurs	-14514
▁(2011	-14515
▁Sympt	-14516
▁Popular	-14517
▁penalty	-14518
▁ancestor	-14519
▁combines	-14520
▁eruption	-14521
▁aesthetic	-14522
FC	-14523
itol	-14524
▁Immun	-14525
▁Visit	-14526
▁moder	-14527
▁20,000	-14528
▁enrolled	-14529
▁Cleveland	-14530
▁RA	-14531
▁asy	-14532
ainted	-14533
▁Cooper	-14534
▁Taking	-14535
▁impairment	-14536
VER	-14537
▁assim	-14538
▁nerves	-14539
▁punish	-14540
▁heavier	-14541
▁respondents	-14542
▁Fr	-14543
▁Om	-14544
▁Pun	-14545
▁Sah	-14546
▁jaw	-14547
▁beef	-14548
▁glow	-14549
screen	-14550
▁protects	-14551
▁vicinity	-14552
▁Victorian	-14553
▁interconn	-14554
▁proceedings	-14555
ctory	-14556
three	-14557
▁lawn	-14558
▁sixty	-14559
▁Desert	-14560
▁invari	-14561
▁Meeting	-14562
▁pursued	-14563
▁chairman	-14564
▁accompanying	-14565
▁astronomical	-14566
▁certification	-14567
cost	-14568
▁appet	-14569
▁decorated	-14570
▁Traditional	-14571
▁restaurants	-14572
▁PS	-14573
▁ps	-14574
▁Dry	-14575
oglob	-14576
▁flew	-14577
▁odds	-14578
▁Holland	-14579
▁tragedy	-14580
▁sexually	-14581
▁poisoning	-14582
▁governmental	-14583
GA	-14584
bus	-14585
▁98	-14586
▁Moz	-14587
▁sap	-14588
▁Buck	-14589
▁Nebr	-14590
▁Plat	-14591
giving	-14592
▁shelf	-14593
▁castle	-14594
▁deposit	-14595
▁archives	-14596
▁correction	-14597
▁authoritative	-14598
aire	-14599
engine	-14600
▁Diagn	-14601
▁Hills	-14602
▁clause	-14603
▁relied	-14604
▁wholly	-14605
▁mandate	-14606
▁shifting	-14607
▁proportions	-14608
▁demonstrating	-14609
Feb	-14610
▁Stev	-14611
▁queen	-14612
▁enrich	-14613
▁beaches	-14614
▁mainland	-14615
▁sanitation	-14616
▁Abs	-14617
bling	-14618
giene	-14619
ocate	-14620
rians	-14621
lihood	-14622
▁Panel	-14623
▁aerial	-14624
▁exotic	-14625
▁simplest	-14626
▁rehabilitation	-14627
appy	-14628
▁Laws	-14629
ennial	-14630
▁1991.	-14631
▁Beijing	-14632
▁Overall	-14633
▁Territory	-14634
hell	-14635
size	-14636
▁bub	-14637
▁1910	-14638
▁1987	-14639
▁Reich	-14640
▁climb	-14641
▁diarrhea	-14642
▁rotating	-14643
▁saturated	-14644
12.	-14645
weg	-14646
sels	-14647
▁Vin	-14648
▁bip	-14649
▁obl	-14650
▁Anat	-14651
▁summit	-14652
▁imports	-14653
▁assisted	-14654
▁overhead	-14655
▁synchron	-14656
▁violations	-14657
unks	-14658
▁Gent	-14659
▁bulb	-14660
▁sins	-14661
▁Pitts	-14662
▁marsh	-14663
▁unint	-14664
▁yeast	-14665
▁Reagan	-14666
▁puzzle	-14667
▁proximity	-14668
uci	-14669
▁Ay	-14670
hett	-14671
▁luck	-14672
▁1993,	-14673
▁metaph	-14674
▁diamond	-14675
▁Electronic	-14676
▁revelation	-14677
▁wavelengths	-14678
OU	-14679
sens	-14680
phones	-14681
▁renow	-14682
▁Things	-14683
▁dementia	-14684
▁projection	-14685
April	-14686
▁lact	-14687
▁Phase	-14688
leading	-14689
▁handed	-14690
▁Improve	-14691
▁destroying	-14692
bird	-14693
weet	-14694
ringe	-14695
▁refine	-14696
▁aggression	-14697
▁comparisons	-14698
▁vulnerability	-14699
otte	-14700
pend	-14701
▁cyt	-14702
▁fans	-14703
▁Laure	-14704
▁simpler	-14705
▁Nebraska	-14706
▁humanitarian	-14707
▁EC	-14708
agus	-14709
▁1.0	-14710
▁Juan	-14711
▁pests	-14712
▁hypert	-14713
▁leather	-14714
▁magnific	-14715
▁rigorous	-14716
▁consuming	-14717
▁geometric	-14718
▁merchants	-14719
:3	-14720
aca	-14721
▁grams	-14722
▁merit	-14723
▁shark	-14724
▁outward	-14725
▁arthritis	-14726
▁harvesting	-14727
Am	-14728
TR	-14729
XX	-14730
▁90%	-14731
▁aids	-14732
▁aeros	-14733
▁emitted	-14734
▁baseball	-14735
▁PV	-14736
osium	-14737
▁Wang	-14738
Europe	-14739
▁poets	-14740
▁Growth	-14741
▁derive	-14742
▁voyage	-14743
▁Bernard	-14744
▁empower	-14745
▁Molecular	-14746
▁networking	-14747
▁manuscripts	-14748
▁proposition	-14749
5-	-14750
–3	-14751
viol	-14752
▁gamma	-14753
▁potent	-14754
▁Iceland	-14755
▁airport	-14756
▁editing	-14757
▁recognizes	-14758
coma	-14759
▁BCE	-14760
onium	-14761
▁hasn	-14762
urgical	-14763
▁departure	-14764
▁graduates	-14765
▁strengthening	-14766
pose	-14767
▁drove	-14768
▁navig	-14769
▁sends	-14770
olation	-14771
▁wastes	-14772
▁adventure	-14773
▁demanding	-14774
▁everybody	-14775
▁triggered	-14776
rof	-14777
▁Kl	-14778
opard	-14779
▁Prob	-14780
▁cens	-14781
alities	-14782
▁lawyer	-14783
▁restra	-14784
▁detector	-14785
▁keyboard	-14786
▁merchant	-14787
▁completing	-14788
▁undoubtedly	-14789
inas	-14790
rowse	-14791
▁Gran	-14792
▁flame	-14793
▁Nearly	-14794
▁honour	-14795
▁anatomy	-14796
▁sensing	-14797
▁servers	-14798
▁allergic	-14799
▁BL	-14800
▁GE	-14801
▁fut	-14802
▁epic	-14803
▁pear	-14804
houses	-14805
itives	-14806
▁coven	-14807
▁myths	-14808
▁renewed	-14809
▁downward	-14810
▁breakdown	-14811
▁presumably	-14812
▁underwater	-14813
ograms	-14814
▁Judge	-14815
▁cooked	-14816
▁Investig	-14817
▁disturbance	-14818
ozo	-14819
rawn	-14820
▁Kos	-14821
ococc	-14822
▁Horn	-14823
opathy	-14824
rategy	-14825
▁clubs	-14826
▁Content	-14827
▁Register	-14828
▁pipeline	-14829
▁flowering	-14830
▁activation	-14831
Man	-14832
amy	-14833
▁SW	-14834
July	-14835
ithm	-14836
ouch	-14837
▁(0.	-14838
▁2.0	-14839
▁Perm	-14840
▁cease	-14841
▁amphib	-14842
▁reactors	-14843
▁swelling	-14844
▁condemned	-14845
has	-14846
▁Pt	-14847
iller	-14848
onian	-14849
▁Race	-14850
▁ethn	-14851
▁kern	-14852
▁seaf	-14853
▁maneu	-14854
▁Compan	-14855
▁prompted	-14856
▁SH	-14857
▁iP	-14858
▁Foot	-14859
▁altar	-14860
▁feast	-14861
lectric	-14862
▁feared	-14863
▁orbital	-14864
▁struggles	-14865
▁allocation	-14866
▁analytical	-14867
▁problematic	-14868
ui	-14869
stru	-14870
▁Kle	-14871
▁orch	-14872
▁seam	-14873
▁novels	-14874
▁69	-14875
▁76	-14876
hind	-14877
vised	-14878
▁lets	-14879
▁Neuro	-14880
inburgh	-14881
▁anyway	-14882
▁maturity	-14883
outheastern	-14884
▁casualties	-14885
▁deployment	-14886
▁thereafter	-14887
700	-14888
▁4)	-14889
weed	-14890
▁Kra	-14891
▁curt	-14892
▁Warren	-14893
▁cleared	-14894
▁persist	-14895
▁shouldn	-14896
Ge	-14897
World	-14898
venth	-14899
▁$100	-14900
▁Barn	-14901
▁nons	-14902
modern	-14903
▁exert	-14904
dominal	-14905
▁hungry	-14906
▁nobody	-14907
▁Financial	-14908
||2	-14909
▁$5	-14910
▁$1.	-14911
▁bon	-14912
ultan	-14913
▁jack	-14914
▁alpha	-14915
▁marry	-14916
▁naked	-14917
▁nanop	-14918
▁Geneva	-14919
▁Turner	-14920
[...]
